/**
  ******************************************************************************
  * @file    lstm_data_params.c
  * @author  AST Embedded Analytics Research Platform
  * @date    2025-10-08T21:47:54+0200
  * @brief   AI Tool Automatic Code Generator for Embedded NN computing
  ******************************************************************************
  * Copyright (c) 2025 STMicroelectronics.
  * All rights reserved.
  *
  * This software is licensed under terms that can be found in the LICENSE file
  * in the root directory of this software component.
  * If no LICENSE file comes with this software, it is provided AS-IS.
  ******************************************************************************
  */

#include "lstm_data_params.h"


/**  Activations Section  ****************************************************/
ai_handle g_lstm_activations_table[1 + 2] = {
  AI_HANDLE_PTR(AI_MAGIC_MARKER),
  AI_HANDLE_PTR(NULL),
  AI_HANDLE_PTR(AI_MAGIC_MARKER),
};




/**  Weights Section  ********************************************************/
AI_ALIGNED(32)
const ai_u64 s_lstm_weights_array_u64[11361] = {
  0xbe26094cbe1d241dU, 0xbc8644fdbd083f01U, 0xbf82dcbd3eba8a43U, 0xbc2c89933e84dbc8U,
  0x3d935007be4ba987U, 0x3ec7b5febee9c2d2U, 0x3d01e9cd3e78f993U, 0x3d65ef973d7d995eU,
  0x3f123606bec165a6U, 0xbcdaa03dbe83d40bU, 0xbe3ea746bddb465bU, 0xbf2f3171be586d7bU,
  0xbd8510773de79c43U, 0xbe0f99263c523e6cU, 0x3e67a4b83fb976c3U, 0x3dbf1a65bec8b8ceU,
  0x3e0ec63abdd12732U, 0x3f32db03bf1fc7bbU, 0xbe00c9b9be233573U, 0xbc499e1e3dbd0018U,
  0x3da49ec8bef78933U, 0xbe00d510bd97fb26U, 0xbd9a137abc91d954U, 0x3f0cffff3f5f6a4aU,
  0x3dd006633dcb989cU, 0xbd9bd6b4bd917b48U, 0x3d88be2c3f83b63fU, 0x3caa8f9cbe9a3744U,
  0xbe27fa25bdd794ecU, 0x3f004420bf8fe3d1U, 0x3e6d87883ccfda47U, 0x3e8541053c5ab33fU,
  0x3e15b3f73ebe0b64U, 0xbe8e6355be398184U, 0xbcf732dbbd27acc4U, 0x3ec1a1973e1547c9U,
  0x3df21a593e886bceU, 0xbd15f5b93c2c8471U, 0x3ec7a86bbf4507e1U, 0x3e1763923e651499U,
  0x3da92b543d83c5b7U, 0x3f4ddd7f3cfa63adU, 0x3ec38e063cce5a35U, 0x3cdfa2903c979fbaU,
  0xbdd1b30fbed49fb9U, 0x3d8c382c3d493e14U, 0xbd2505033c96d379U, 0xbe9621c73f6a0348U,
  0x3d7788c4bdd1d4d6U, 0xbd7b07bcbda432bdU, 0x3f75d4313e87502fU, 0x3dcc9be2bd97f58cU,
  0x3e9c81c6be8e1339U, 0xbf078e413e42e1e0U, 0x3e7633d13e67e004U, 0xbdc7c3133d1b5d39U,
  0x3eb5e8b43dfe17f3U, 0xbe8e252abe5727daU, 0xbe2032ecbdf509feU, 0xbf29a84c3f6dec21U,
  0x3c59a096be2f9608U, 0x3d0ea086be0dbb6bU, 0x3e6ae840bf6586a1U, 0xbc94f0423db2cf02U,
  0x3d00d3653d55227eU, 0x3f60099fbf34094bU, 0x3b8597733e110301U, 0xbdcd4306bd8a16d9U,
  0xbf7d373f3f0b67a5U, 0xbdad91433d2fdd73U, 0x3d2d836c3dc30d0dU, 0x3f931cff3fd5520fU,
  0x3ed63e2c3c85a2feU, 0xbe326caf3d7a794bU, 0x3d88cc70bea35e76U, 0xbd035d623e34ecb8U,
  0xbdf2b56f3ebff00bU, 0xbf00344a3f9797a6U, 0x3e233f93be443571U, 0x3da1527bbcbd0eccU,
  0x3f4ac785bfb38718U, 0xbd2095d6bd305132U, 0x3e1d88dcbe1a0e18U, 0x3ef13a70bfcd266bU,
  0xbe974452bd6872fdU, 0x3b8b0e133e291673U, 0xbfd426483f1af457U, 0x3ead49333e7e906aU,
  0xbde79814bd2c9332U, 0xbf887b1bbd896ed6U, 0x3d9ce07a3e0f7339U, 0xbe2c4f9ebd9accd2U,
  0xbf03aa303d8297f7U, 0xbe4a78a83e50463aU, 0x3d361403bd503146U, 0xbe74a3d43f25893bU,
  0xbe66c15bbd34d4a4U, 0x3d8a9dbebd7f5aa7U, 0xbebef53c3f881715U, 0x3e1568a6be193ac3U,
  0x3e3948b63d846035U, 0xbd82b8a23eb6e358U, 0x3dc0c67d3d21d723U, 0x3dd3c9733e582c4dU,
  0x3e90685c3f32707eU, 0xbe0015a2bd905204U, 0x3e315b7db9925072U, 0x3e0353d1bf084258U,
  0x37a462babdc6160aU, 0x3e586ec6be9d55b6U, 0x3fe6b8203f47bfa0U, 0x3cabb44d3b5fc246U,
  0xba71ca283e0f8505U, 0xbe77329b3f1056c9U, 0x3e679c693e1df2bbU, 0x3cb361bcbe0be9adU,
  0x3f161202c009c2feU, 0xbe3dcaf33e5e6acdU, 0xbc9580e43e190fd7U, 0xbd92ccc8bdd53fd1U,
  0x3ea08f853e4eccc9U, 0x3d9312503d35a42eU, 0xbf32f1743f153c07U, 0xbe5f3f24be07cdf7U,
  0xbd8cb3bd3d21717eU, 0xbfa13b2d3fc353cfU, 0x3e0402603e052db4U, 0xbd85370bbdd16655U,
  0xbf0015c03f0c72c0U, 0x3e9ceca43d534bfaU, 0x3dc2d0ddbd796723U, 0xbf0b8050be7ffbafU,
  0x3ee4fc7d3cb0fdb0U, 0x3d9137843d677920U, 0xbe029fe2be233400U, 0xbd8564d5bcc45936U,
  0xbd45134bbdc7c9d2U, 0xbee9a3393e167c48U, 0xbe226da3bcf19879U, 0x3bb27d69bdfd621fU,
  0xbe88a5e63e14722eU, 0x3e1ba36b3de6f4ecU, 0x3d6bb828be2bce5dU, 0xbe4d1c033cfba713U,
  0x3ea74a2cbdb7ce1dU, 0x3e08c890be0ccecaU, 0x3f3c8123bda1484eU, 0xbec51113bdfaf235U,
  0x3d89e1c53e07ad30U, 0xbf7eb6b13f8f44aeU, 0xbe20ef70be2cec4dU, 0xbd6488913c662c3aU,
  0x3ec6538fbe840ee3U, 0xbdb6834ebde9f37aU, 0x3caf8c95be464551U, 0xbf8201ab3fe96335U,
  0xbdcd2854bb6665f5U, 0x3d9f22f93d0ccd20U, 0x3f89da753f39e8a2U, 0x3db5d9d83d494a5dU,
  0x3bb32f4dbe349a33U, 0xbe8b97db3ddb4ec6U, 0xbd693f2abe2b7aaaU, 0x3d94a8453e384f43U,
  0xbdd61fcfbf1c995fU, 0x3c6ecc233e5f9a41U, 0xbbdd3e843e9afb6aU, 0xbe1728f93e100d64U,
  0xbe4a92f03c49d9e1U, 0xbe06fc9d3ce21072U, 0xbef222563f337b7bU, 0x3ede5a2a3c362e8bU,
  0x3cbb6076bd7cb5f2U, 0x3efa393e3e81316dU, 0x3e5b49123e31336dU, 0xbd310853be4d998eU,
  0xbf4b395d3e59fe21U, 0xbe5f55923d549949U, 0xbeb5c06e3e11fdaeU, 0x3e36c5cabf09501dU,
  0xbd3a8d443e960919U, 0x3db916e0be47af45U, 0x3db7bb6d3ef5ba3dU, 0x3dd7128b3c5d0d53U,
  0x3e98dbdfbd8a4900U, 0xbfc2f87a3e466b72U, 0x3cbe3af23d806072U, 0xbdff494c3e3feb08U,
  0xbf926e5e3fc67b81U, 0xbda9fcaa3e07d8ddU, 0x3dd68d7d3c1ebb5cU, 0xbfa73e413eb9a255U,
  0x3cc7b7f2be5a9ef2U, 0xbd8b88603d8f5705U, 0xbf4a7e543e86f726U, 0xbeadac613e5e8320U,
  0xbd0cfcc8be8808e2U, 0x3f0029fabed241a8U, 0x3cdb73823e60f56dU, 0x3c3836793e17f3ecU,
  0x3ef4623bbe7bb3edU, 0xbe5fbe35be733802U, 0xbdbeceeebdb5ca74U, 0xbd8f3dabbe7dee31U,
  0xbe2b6651bc18a4b6U, 0xbcccfaff3e0d6e69U, 0x3fcb5e233fc71fb0U, 0xbe41e66dbeaec8f1U,
  0x3daf3d4bbe20c8c7U, 0xbef7ca2abf039584U, 0x3dc17231be3ab99dU, 0xbe83c6f83e0c5182U,
  0xbed07138beb3153eU, 0xbe1ae900be71b0baU, 0xbe0688813d0e3000U, 0x3f0c9c733f944914U,
  0xbdd3ba16bd1ba6eeU, 0xbe7442703dc3ee9fU, 0x3f27b9723f7cc649U, 0x3e213521bed4b167U,
  0xbe4e3a4fbd0021b2U, 0x3ee0516ebf6aa9a1U, 0xba8d8581be100b4cU, 0x3ea1ef893cc79a39U,
  0x3bd2f1c73f88555fU, 0xbd245b433da603c2U, 0x3d4ce62ebd3da614U, 0x3eb9e5f73d7d9cadU,
  0x3d1218133e1e0abaU, 0xbdd6b3213cba3722U, 0x3df8f70dbe8083a7U, 0x3d5652213e8f3a10U,
  0x3d92e67abdb4d858U, 0x3f2dba8e3d5af5fdU, 0x3eab9699bda97a7fU, 0x3e8a300b3dea0552U,
  0xbf1603d1be750716U, 0xbe87d10a3e188996U, 0x3e3a153ebe8b39c5U, 0x3ea9d1803f465418U,
  0xbc99b6923d640ef7U, 0x3c44b6133e3be562U, 0x3f9d980e3f02d93bU, 0x3e0244a3bd50554eU,
  0xbe8e28da3ed5a8d0U, 0xbeeb554c3f2b9512U, 0x3ecbd8b83dd6f686U, 0xbc71b6fc3e2225e8U,
  0x3eb40ee1bd3fa38aU, 0xbe965fd2bdf542d3U, 0xbdc1e603bd1f7009U, 0xbeedd2c33f9e8953U,
  0x3d36401dbca0a3d7U, 0xbe3cee1c3dc9f528U, 0xbc9aa6a9bf266b2cU, 0x3e1f5348bd9a6860U,
  0x3d3b305f3d5070ffU, 0x3f057715bf1641a1U, 0xbe5cd0f53e872fc2U, 0x3d1387443dcd604dU,
  0xbfcb0e423f18d5eeU, 0xbe5ebf65be479f80U, 0xbe2b7f6bbd966bccU, 0x3f1997753ffa23ddU,
  0x3e086a6d3a92c01bU, 0xbe9ddb93bb57e9c3U, 0xbd5ec1fbbf03ecf7U, 0x3b5717303cc3c69fU,
  0xbdbfa2073e5e5ecfU, 0xbe6714e040057514U, 0x3e626ed33d1796fcU, 0x3d905266be57ee80U,
  0x3f11fedbbf908ba7U, 0xbe564bb73d5ed594U, 0x3cc7c887be0e97b7U, 0x3eb79b52c0091141U,
  0xbe06a4a3be5030e0U, 0x3dc6284b3e70fb62U, 0xbe12e4013f26cdebU, 0x3e124ccd3eb50892U,
  0x3e381befbda52441U, 0xbfab4f38bf269cb0U, 0xbe73688bbdba0cddU, 0x3db59c413dfc8243U,
  0x3f9ffd053f0cfc43U, 0xbd8301c43e66bae1U, 0xbe0d03a53de701b3U, 0xbf08edf33f25cf42U,
  0xbde97c94bcc64826U, 0x3d2c3c6a3e931f9dU, 0xbeefcfb23f8ee2beU, 0xbe1bfc24be834d5fU,
  0x3ce3f9743d9d1302U, 0x3de5bf983eb69f0dU, 0x3deea6493dcd1eefU, 0x3d90e094be04b632U,
  0xbeb0f6fb3f53602cU, 0x3d95ec96bd93a0c0U, 0xbdceb35f3e5f61f1U, 0xbd3aab68beeefa4aU,
  0xbca80f33bd69d686U, 0x3e6170cfbe04238cU, 0x402abb0b3ee18503U, 0xbe2b629f3e2973beU,
  0xbb99ea0cbe03121dU, 0xbc3112ae3f45b8feU, 0x3eabffdfbcbd6cccU, 0xbe407ef93bbb99dbU,
  0x3eea4225c01d70deU, 0xbe0cdc4f3e84322fU, 0x3d7acb61be0018c2U, 0xbdafbe1f3e83423fU,
  0x3e940f383e76d3a4U, 0x3c7341c5bdcfe6e2U, 0xbf2b68423ee8356eU, 0xbe9ed54a3e34e6eeU,
  0xbc8931adbdf395f4U, 0x3e0db7303fe19083U, 0xbdaebb903ca4dca3U, 0xbe1f22cf3d27f14aU,
  0x3f96dc313e07d562U, 0x3ee462ad3e1ddb17U, 0x3dc295463cb78866U, 0xbf5ec71cbeb0ef50U,
  0x3f247e853e82c418U, 0x3e97a88b3bd0deedU, 0xbfde1c28be433ebaU, 0xbd9e93f33dea4fe1U,
  0x3e1e37c3be2ec155U, 0x3f5575c73f001704U, 0xbe01dc023d888dc0U, 0x3e207b973cdfcbcfU,
  0x3b6390263ee0bb2bU, 0xbcd06c12bc284d41U, 0xbdecc69e3eafe6b9U, 0xbe6076453f2f891fU,
  0x3ec2ebeebdb05bd4U, 0xbe642647bdaca643U, 0x3d971eb23d6e9140U, 0xbed553e2bdeb0ddaU,
  0xbe1348713e29b934U, 0xbd05abb83fc39172U, 0x3da0322cbe161f13U, 0x3c34f0b03d532eb7U,
  0x3ed081dbbe309f51U, 0xbe22a777bdbf9dd7U, 0xbdbc0c1cbda43239U, 0x3e1038c43fd7cb09U,
  0x3ddd16b33b6977b5U, 0x3d4628fdbe9788c4U, 0x3f0546033f410d9fU, 0xbe98e258be648d34U,
  0xbce4a136be9ab264U, 0x3d6c54193e94f4fbU, 0x3dc6b3eabdfb77a9U, 0x3de0236cbce8fa3eU,
  0xbe3265e9bf0f9f1bU, 0xbe31aaf73d76b4fcU, 0x3e9b476f3cef1af4U, 0xbfc1109a3e9140efU,
  0xbdca39e03d966fc3U, 0xbd28f03b3e1b4cf1U, 0xbfa2be4a3f23e137U, 0x3e88ce7ebe56f938U,
  0x3d4abf3ebd2db2a2U, 0x3da8d43f3e9cf53fU, 0x3ea6a9903dfbc62fU, 0x3e2954b7be35b1ecU,
  0xbfa6fccdbdbc5538U, 0x3d88aea1be4bd78bU, 0xbee374ecbdca3584U, 0x3de5b099beb5923dU,
  0xbe0b91e53e870663U, 0xbdcc415ebe38612cU, 0x3eafe5f93e721932U, 0x3d8dffedbd0a7c71U,
  0x3eb6acd6bd843551U, 0xbfd7b3b23f470677U, 0xbd6ac5fcbd6a6656U, 0xbe95972f3ea6b252U,
  0x3c21a08e3fa774e3U, 0xbe80262d3d640e9fU, 0xbd5c1a83be1e377cU, 0xc00869303e011218U,
  0x3e39da6a3e169943U, 0x3de487edbd23379dU, 0xbe46ac063fb4f049U, 0xbd113a5a3e4ba753U,
  0xbe7aeeb83d5cf915U, 0x3e0d65a2bfb6135cU, 0x3df02bd43d0673b0U, 0x3e22dec5be500307U,
  0xbfb1edaf3f696aedU, 0x3c3422f93e015691U, 0xbcd0e701be9758c2U, 0x3e627169beae59d4U,
  0xbec5828a3d44ef56U, 0xbe1d6419bd3f7d42U, 0xbf3308e23fbf3d87U, 0xbcc4f7f43e8fab7dU,
  0x3cbfc7f03d402cc9U, 0x3f89495d40086abeU, 0xbd09d6bcbe73c6aeU, 0x3e011008bc3099c8U,
  0xbd42b30fbf90de63U, 0xbe6358e73e0615dbU, 0xbda5dc92bdaf2daaU, 0x3d679a744031af9cU,
  0x3e87d1fcbe3a0dc9U, 0x3deeb122bd88a63fU, 0x3e1f4076c00465f0U, 0x3d9b7fe7be424df6U,
  0xbe5537e63d6c9e28U, 0xbe862706bf979147U, 0xbeafd99f3d25903dU, 0xbcbc426d3c9072b2U,
  0x3f03c63ebfa92cb4U, 0xbdfb1e363d9a7faeU, 0x3dde7e783babdd4dU, 0x3e08a64d401b68deU,
  0x3d47cd08bee92003U, 0x3d5b66babdec1babU, 0xbf3ec751bfb98dc7U, 0xbde9d51e3e6eb07eU,
  0xbe3a62aabe18a5e4U, 0x3ead82f53fa7dea8U, 0xbeb652563e34af63U, 0xbe2df1d0bd86396cU,
  0x3ec3cd8b3f986e7cU, 0x3e35e54e3bcb6a10U, 0xbdfe8b103da85a88U, 0x3e140a4fc01ede0dU,
  0x3e27a6f7bebd6fbeU, 0x3de22cafbd87a087U, 0xbf126a5abf355727U, 0xbd501b523da1abb6U,
  0xbd9ba1223c78bca6U, 0x3f33bbcbbf82ae09U, 0x3d97f09d3e8ae966U, 0x3d76e8993bc731bcU,
  0x3f74bababf391d7eU, 0xbe24c4c33e28fa46U, 0xbe165ff3bca1f440U, 0xbd91ecb6401c6c3cU,
  0xbd8967f53e96e412U, 0x3d06d2643d11299aU, 0x3ec562943fe38734U, 0x3e535e243e8905b3U,
  0x3ceb5f003e11cbaaU, 0x3e5f01e0bed28c88U, 0x3df8c1f3be00a101U, 0x3d6fc5c9be327ca2U,
  0x3f6a084fbf52cd58U, 0xbe8dd0243e211d6eU, 0xbd9ec38bbd0f4370U, 0x3ed34cb3400f5e05U,
  0x3dc56d82bd842479U, 0x3e1d5967bcfb0898U, 0x3db3d6df3fbab706U, 0xbe5196c63e37b0acU,
  0xbe5166c73c9aa4d5U, 0xbdee86823f798410U, 0xbc7516733e146f7bU, 0x3e5cf2f6bc35db18U,
  0x3f42c8ab3f9f6e39U, 0xbc2e59c1bd182147U, 0xbe6f9426be18202dU, 0xbf7a6d36bc6dbf04U,
  0xbeebf597bb005118U, 0x3d9c86923bbaaf14U, 0xc00d9fcd3fa1ebb4U, 0xbe6314e63d8fa306U,
  0xbe7a443bbc186482U, 0xbe9acb51bee2dae3U, 0xbebd9d553e46c697U, 0x3d2ddc17bd271d88U,
  0xc0174cc6400d8f34U, 0x3e0bbd3cbea1b0e2U, 0x3c07dc5dbdfbbf0fU, 0x3ec43c15bf8ae8bdU,
  0x3ea20c6c3e052a9eU, 0xbd76bd083c36749bU, 0x3fb6836dbf0eae93U, 0x3dd8b97b3dd43e51U,
  0xbd30e1e9bde546bbU, 0xbd2f93fd3f1addceU, 0x3e7aaf13be51a803U, 0x3dcef7f83e0f7600U,
  0xbf98217a3ea074ecU, 0x3dcb034b3e10ce20U, 0xbe1531f4bdf1e11eU, 0xbf0b2487bf131bb8U,
  0xbefe297ebe28dc6dU, 0x3d9fbb16be2ff498U, 0xbf46a87b403d6ee4U, 0x3d2362f9be7a8032U,
  0xbcb9d393bd8dea3fU, 0x3e7ad3a1bf8ac442U, 0x3eaf8d18bef7accaU, 0xbda302b2bd0f8228U,
  0x3d0aa3fdbf962f6dU, 0xbe419ea53eb5a34aU, 0xbe44a4e93b786c0eU, 0xbce50fdd3f9dd85cU,
  0x3e4e08eb3dd4beddU, 0x3e0e27963dd2a4c0U, 0xbdf57878bf30b40cU, 0x3e9757af3e2df152U,
  0xbddb2e83bd21c60aU, 0x3f841d68c04d5e0bU, 0x3bb2e1813ead7f89U, 0xbc92b12abe66261fU,
  0x3fbe65a9bf9c4ab1U, 0xbe7790ad3c8f85bfU, 0x3cf9e8d4bd805716U, 0x3f1ef3023f43d396U,
  0xbebde8243dafb23fU, 0xbda7776abe0feba8U, 0x3f794f523ed47f22U, 0x3d87fffabe1e2ddcU,
  0xbdb273753d3e98bfU, 0x3f866ac8c01dcdb4U, 0x3d81f8e9be7769aaU, 0xbdacade8be3ca411U,
  0xbf22bb213d876643U, 0xbe7d56e9be280f54U, 0x3d862870bd4661e4U, 0xbf90b33d3ef70a0dU,
  0xbdb274ae3b9253a6U, 0x3e14843d3d8c4c31U, 0xbe1c73e8bf4c1e50U, 0xbee57a6cbe084b0fU,
  0x3d59804b3df37da7U, 0xbf231531402156e6U, 0xbe47e668bc1bb6bdU, 0xbd987a6c3d3cde59U,
  0xbdbcaad33f294396U, 0x3e94c628be57d152U, 0xbc0adc5ebe039beaU, 0x3ecb66f1c0208480U,
  0xbe44974b3dddb04bU, 0x3dae9c6cbd3723e0U, 0x3f2d949a40607fb9U, 0x3e3e96323d31aadfU,
  0x3e34a45a3d66a757U, 0x3e0af543bf2d36c0U, 0x3df6c45b3ea5c341U, 0xbd1d2efabd1df09fU,
  0x3ea3bbe23f9b927dU, 0x3d6c86863d0786acU, 0xbebc38e9b8ccbbc4U, 0x3fb05d4ebf8daf7cU,
  0x3c45ccbabe40da41U, 0xbca69cf2bb09cca9U, 0x3eccf84cbf907769U, 0x3e1563693d8cdf4bU,
  0xbd64c1c8bd737a4fU, 0x3edfa7123ffd40e0U, 0xbe46e61ebc4cc27dU, 0xbd47a85ebd8af377U,
  0xbe177ad53f95eb58U, 0x3e1ab8b93d6683bdU, 0xbe95a1283d268bb1U, 0xbdcfac433f72188eU,
  0x3e70d38ebe32aa65U, 0xbd5138683d9c2e9cU, 0xbd8f05e0c008261aU, 0xbe4525df3e6f427cU,
  0xbe4d1c39bd77ac34U, 0xbe047a163cb1ddf4U, 0xbe9dc27cbd16865bU, 0x3d3928d9bd379506U,
  0xbf0e59933fbf5af5U, 0xbdf85fd33e84f00eU, 0x3e3c1c7cbc4de48bU, 0xbf865ca83fd08ea2U,
  0x3e166d7cbea88bc8U, 0x3dd1c4d13e26bbadU, 0xbf400bad3f0f5e6cU, 0xbe9e1b993e447c18U,
  0x3d942cfebe84af22U, 0x3e83f369bf0fec9eU, 0x3e13fb9e3d2d7e3dU, 0xbe3410ba3dbf272aU,
  0x3fb4e0c63d36f45aU, 0x3da83d0d3dc77f71U, 0xbcbbb756be4170aaU, 0xbf709edbbe5aa5f0U,
  0xbd43ea76bc8ef93bU, 0x3cea09aebd1f9839U, 0x3f6811d83fbce14dU, 0x3d834840beb42560U,
  0xbd18fdf5bb7ae635U, 0xbcaee8f4bec07afcU, 0x3e61c2e6bce67c55U, 0x3d7610d3be54fdffU,
  0x3eab13e6bec57fc3U, 0xbe76193abe3a63efU, 0xbdcf87903d8b915bU, 0x3f128eae3f091d7eU,
  0xbdc4f1623ea76465U, 0xbe56a7f2bbd6b20eU, 0x3ed07fa43f892597U, 0x3ea80603be37bff4U,
  0x3ce6bee83c236b03U, 0x3e77c4d7bf84100aU, 0x3cdd303fbe50c525U, 0x3ea72bb73ca2d406U,
  0x3d9bb2453f208fa1U, 0x3d56935cbe6eba2dU, 0x3e505b2a3de4a6f7U, 0x3db95d1c3e8bb5baU,
  0xbdbf8979bc18eea3U, 0xbe0ff3e5bdeed88dU, 0x3e61e301bef1c4f1U, 0x3e5de5b0bbb53b17U,
  0xbdbd27043d5674d7U, 0x3f10fc13bdc0ffe3U, 0x3ec573e4be89f5bdU, 0x3e858af43d6069b3U,
  0xbeb627203d83bdeaU, 0xbdd2372abe137051U, 0x3e01bd73be6333feU, 0xbe9dd42e3e80fd05U,
  0x3e19df39be0a662dU, 0xbe3eabc73c617031U, 0x3fa72d013f0563aeU, 0x3d3111c7bea0f08dU,
  0x3c4d840b3dd0b773U, 0xbdeba4593f52dd4aU, 0x3ec2cc4abc46092fU, 0x3d77eae53d0b80f6U,
  0x3f86f2723cce5da4U, 0xbe8d9417be423893U, 0xbe3dd9f13ddc0328U, 0xbf0612623f51206bU,
  0x3e88929dbe82a970U, 0x3d51f4f73e75de39U, 0x3e54f630bf6d9f47U, 0x3ea20ad83d0bfd46U,
  0xbd8e226bbd9acadbU, 0x3f08b106bf536805U, 0xbe8aee3d3e877795U, 0xbe47fc7dbd341384U,
  0xbfda61e13dbca6adU, 0xbdd7bf9fbdc021b2U, 0xbe228ff5bb02f650U, 0x3f17a314400050cfU,
  0x3e30558fbe3e8413U, 0xbd2fafa43e30f543U, 0x3c3f4142be869b56U, 0xbe5c2d503e9a486bU,
  0x3df784d53e237283U, 0xbe04a34f3f8f5b13U, 0x3e25cedcbc024438U, 0xbc3d5e90bce084e5U,
  0x3f5a703bbf69192dU, 0xbd3dfc453dbb57caU, 0x3e3f99afbe7d6e1dU, 0x3ead336dbfd102f6U,
  0xbde86ef73e39bc42U, 0x3dd0df583de96de5U, 0xbf4521fe3f5c4ae5U, 0x3e6644503df1f48aU,
  0x3e49842fbd84442eU, 0xbfcc7866be8e9222U, 0xbe018e463e9a5fdeU, 0xba927e0d3cf470eeU,
  0x3d75f3293f1f66a0U, 0xbea8fc1b3dc5d7f2U, 0xbe388245bdf25f13U, 0xbece600a3ecb6b43U,
  0xbceafb7b3d43d2b5U, 0xbe057561bdc56abcU, 0xbf0171c13f90c386U, 0xbcad98d5bcfaa49fU,
  0x3e253759be043592U, 0x3da2da453d1848c5U, 0x3dc36d173da2f1d0U, 0x3e324f783d693c5dU,
  0x3e219c1f3f2dcd94U, 0x3dc4800f3b236b4bU, 0xbdfea7a23ca9ba2dU, 0x3cbd78b7be82047dU,
  0x3e59c7c23e08590cU, 0x3e8ff9b3bd287a6dU, 0x4020526f3f7a621aU, 0xbd8edfb53d725a3fU,
  0xbdb38cc5bbd7a2bbU, 0xbd80d3583f3f232cU, 0x3dab888ebe886bc6U, 0xbe5a1f953c868e78U,
  0x3e986d8dbfbb2a89U, 0xbba3ebec3e3c254fU, 0x3bcf9be03d8aa531U, 0x3e3ae69ebe1aa0c5U,
  0x3e84d17f3e82613aU, 0x3e19ab813e264311U, 0xbf1456f03f100ab7U, 0xbc017b3b3e006116U,
  0xbdf5d0cdbe09e357U, 0xbf3c61cb3fd4c979U, 0x3e123c92bde8c3d5U, 0x3b41c4e33db2e19cU,
  0x3f053a493ea5e68eU, 0x3eb4d3fa3e32be8fU, 0x3d016ec2bd933a26U, 0xbf2ea0cebdeb7d6bU,
  0x3f0ec5b8bd140edcU, 0x3da8d9773d03735aU, 0xbf8223973da1c86aU, 0x3dcff41cbcbde465U,
  0x3dd0b857bde6d69cU, 0x3cf50fe33e91de8aU, 0xbe1126593e784672U, 0x3e054944bcf5207cU,
  0x3ebd3c4dbf11cf30U, 0xbd35b7b0be88e561U, 0x3ddbf5733c2fcdd1U, 0xbde762403f40274eU,
  0x3e87ca40bc9e67fdU, 0xbd8331eb3d85f393U, 0x3e1e3654bca12f42U, 0xbbf8449e3e5bdfd0U,
  0xbd0c8087bda2d21fU, 0xbe8167283e941126U, 0x3d1da18bbdbd8c87U, 0x3d5196fabe26c4d8U,
  0x3e9865edbde3a01fU, 0xbb22cc043de95cc2U, 0xbdb02881bd2c932cU, 0xbdb981403fb33c31U,
  0xbe1d62a5bd45e603U, 0xbdee2965bdf1b19cU, 0x3d9e3c4d3e55819aU, 0xbdc6704ebe59ba4eU,
  0x3cb3d029be890ea7U, 0xbe592b823e987bb1U, 0xbb904a03bde8f76aU, 0xbd7aff673de0607eU,
  0xbe584aaebf05634eU, 0xbbc7df133e416b28U, 0x3e0c4ea33df8e33cU, 0xbef26be03ecdc1a2U,
  0xbde773903e572e7cU, 0x3d023bd0be3f35c1U, 0xbf374acc3f282facU, 0x3e8ff0b9bde9dc5cU,
  0xbca7ab70bcd1318fU, 0x3dcf62093ecd5ea2U, 0x3ec898953e8bed38U, 0x3e3408dabe180c96U,
  0xbf75b60dbe284e09U, 0xbe141f59bd42ff03U, 0xbeb6d6f13e2b0098U, 0xbe3fb00cbe875e38U,
  0xbd48b2553e950720U, 0x3d9d90323d877120U, 0x3ec5009f3e24aa3bU, 0x3d9c944a3e0fdd99U,
  0x3e99eea2bd0d1e2cU, 0xbf5105933f250cc4U, 0xbc7e1351bd70f105U, 0xbde9d7ca3e0886b8U,
  0xbf1286b93fd0cb36U, 0xbdc1a1e63dc08f51U, 0x3e2d93873d908643U, 0xbfbf397e3d1bb504U,
  0x3da33ca5be3c381dU, 0xbdb1610c3c968189U, 0xbcfbd4833c3c1389U, 0xbd972bf23df98662U,
  0xbda3e44abe1c04d4U, 0xbd06eccabdb2e10cU, 0xbdfc9ece3d339311U, 0xbde413f1bd738f70U,
  0x3e0985e13e00a9fdU, 0xbd81dfc8bddde611U, 0xbdfada1dbdf24b85U, 0xbd327518bd98151eU,
  0xbc81bb0d3da290bcU, 0x3bd62918be04a4a4U, 0xbe243a623dcc7c16U, 0x3e31b7153deed35aU,
  0x3e01f3813d9781ccU, 0x3d3a4d0fbda73212U, 0x3df9ac873e40a439U, 0xbe379e513de12e96U,
  0xbca72d723d8f1afaU, 0x3e4903bb3dec4763U, 0xbd43c001bdc9acf2U, 0xbe38ac983e13ed70U,
  0xbd3de8a23da8ad54U, 0x3da1702c3e15ee90U, 0xbdf6b8cbbc4bfc9eU, 0x3e1cd9c7bd677800U,
  0xbd86fdd83daf3827U, 0x3e27bcab3dfeff11U, 0xbdf13a9fbcfb0b52U, 0xbda30aedbe571dcfU,
  0x3da6aa7b3e157336U, 0xbe2907c0bcde5a91U, 0x3e531f243d51640aU, 0xbd7a044fbc483890U,
  0xbe392430bc95ae7eU, 0xbd85e1563dd11e4eU, 0x3c2aacea3e41e23aU, 0xbd1dc5ac3e1bac69U,
  0x3e430551be6b04adU, 0xbcd462f63de8970fU, 0xbdf1b6823e1d63ccU, 0x3cb4830e3c22d00aU,
  0x3e2865aabd549a12U, 0x3de00e443d58b780U, 0x3e64ff5ebc8dd1b3U, 0xbd04801a3df384d1U,
  0xbd27b1e1be7761e6U, 0x3d0cd10a3d97f475U, 0x3db29e96bbeb0127U, 0x3d67c939bdc1ae1fU,
  0x3a974cc8bd19c967U, 0x3e2f250c3e502eefU, 0x3d25b1453d70f0b3U, 0x3db9b8f3bc750496U,
  0xbd6c18d43c4f9334U, 0x3d391a9c3d9786abU, 0xbd010facbd97cbe7U, 0xbd8a8aec3e1a90d9U,
  0x3ddffbf13d3ba769U, 0xbe089cac3c3d3421U, 0x3dded480bd955a3fU, 0x3d8c977abbe51f72U,
  0x3df537e5bc4cce2bU, 0xbd987702bdec2fb4U, 0x3df4d98fbdf4493aU, 0xbda5974dbdff3ab1U,
  0xbe47d65cbd847616U, 0x3e85bbbe3e059db1U, 0x3d80ea3dbe9e4e58U, 0x3defdb8ebd9c5c08U,
  0xbd53161ebe51a20fU, 0x3e23eec93dac7344U, 0x3d3d07fa3e3c178cU, 0xbd8eef9a3e185646U,
  0x3e2607333deb059aU, 0xbe6794f93e1f328dU, 0xbdcede253e3c67bdU, 0xbde2f1343e42d5dfU,
  0xbe7763313cbec820U, 0xbdee16c13cb24439U, 0xbe7a986fbcc54b65U, 0xbd968e64bde16673U,
  0x3d987b7b3d86e4aaU, 0xbd6ec7c93e360363U, 0x3dd965573d4933a8U, 0x3e04d3e5bdfa2b4fU,
  0x3dced00e3ceb0d35U, 0x3d92b1723d385337U, 0x3be3e9b03e69491cU, 0xbe3d8c55bd1b2e8fU,
  0xbd8f0da9be14b80cU, 0xbdb5a0cf3b781fb8U, 0xbe2ba96f3b1fb80cU, 0x3e8a285a3dd30018U,
  0x3e509da93d0d309cU, 0xbdcdf0d1be582e10U, 0xbdcaa2cebd4ae4c8U, 0x3d9acf80bd857b61U,
  0xbcfe02c83c370511U, 0x3e4e0a5c3d396388U, 0x3e22d617bdec910bU, 0xbe28305dbd948966U,
  0x3e46032bbba63a63U, 0x3dc489aa3dbbbe34U, 0xbe2866ae3dc51f6fU, 0x3e66acc6bd1e2162U,
  0x3d962f443d7c9beaU, 0x3e8cabbb3bd488b5U, 0x3d4cf2dbbdda1d07U, 0xbe0fd3153ead5808U,
  0xbd0ab0e43e07af6fU, 0x3d96f1dcbaaa40b7U, 0x3ced0cc73e5f4f98U, 0x3e601addbde8dd42U,
  0xbdc88728bd844c53U, 0x3d703d523d798eb6U, 0xbe1345d53c176496U, 0x3d9223fcbcd0a48bU,
  0x3e6d4a873d4f4340U, 0xbeae1c7f3d8d83b4U, 0xbe6c4dac3e05a387U, 0x3cb5138e3d12a1b7U,
  0x3e145bf9bd8dfeceU, 0xbdf4fda9bd624a35U, 0xbd6facac3cb125ddU, 0x3df3626abdfaa572U,
  0xbde12632be075a73U, 0x3de4e7e0bd7d8695U, 0xbe027b233d394a3aU, 0x3d9cabae3e22e54fU,
  0xbcb661ad3d8f81a2U, 0x3c8b82f4be2b7c2cU, 0xbd19ab173dc61d21U, 0x3c6fbd9abdb96eb2U,
  0xbdde0774bd21e4afU, 0xbe162d23bd829a31U, 0x3e2b34343d00a7d6U, 0x3da8dcaa3decf447U,
  0x3d9587a6bdb2b3eaU, 0xbca34dfabc443dc6U, 0x3e57b67abda9aaafU, 0xbda23e14bd289ea4U,
  0x3dae2723bd8a8dfaU, 0xbe21199f3bae9277U, 0xbbc04a2c3d14a0b8U, 0xbd80b474be089484U,
  0xbe10bffdbe0b3a2eU, 0x3d8ba9be3d07e6daU, 0x3c7f3d693bc98508U, 0x3d1adeda3db22e0cU,
  0xbb38e385bda46e75U, 0x3e3138523d2d4a32U, 0xbd01ebdf3d0d05d3U, 0x3c94d55bbcf2ac1fU,
  0x3d27ff2f3d799551U, 0xbd896dcc3e637e8cU, 0x3dd947dbbcc6da65U, 0xbd082b853c359470U,
  0xbe0fe3d8bde2aa57U, 0x3d8d938c3e4441f8U, 0xbcc86cc33ce0c2acU, 0xbdcee6123db7953cU,
  0xbdbc4a0f3e51890bU, 0x3c9e0bc93d1d30caU, 0x3c954c0a3e31de20U, 0x3d570d26bd2a81a3U,
  0xbe4dda003db5ad74U, 0xbe156967bc9da399U, 0x3d72226cbe0ae4eaU, 0xbddb1a6a3d8b652dU,
  0xbd5e89ff3e00e5b4U, 0xbcb79de83d85f007U, 0x3d0b6c113dca96d1U, 0x3d374b6a3b026d33U,
  0xbdf277623e046ab2U, 0xbdd2eedd3d99fad4U, 0xbd760b503e96ae5fU, 0xbd47ff26bb2a7168U,
  0x3d36c9a33e052275U, 0x3e2e50a8be4eddd0U, 0xb8824cdb3d882ecfU, 0x3e2ac4e23d051630U,
  0x3d59de30bd12fbc9U, 0x3e1768793c8c068fU, 0x3e503676bc34355bU, 0xbd4c6749bdf44251U,
  0x3da49f5c3e1a7272U, 0xbb9c3411bdc35c7eU, 0xbc75b9073dedf8bfU, 0xb9fdb15c3da14011U,
  0xbd9dce4ebe798023U, 0xbd241398bda05e0fU, 0xbe7dfa90be10c0b5U, 0xbe94e5ab3e6ee55fU,
  0x3ce9c397bc6bd4f4U, 0xbd1129813e62b6d3U, 0xbe9108a8bd26f627U, 0x3e3758cdbe1a3efdU,
  0x3d8ab502bca2cda7U, 0xbe52dff6bdeddcc2U, 0xbdead335be0fa6ebU, 0xbe36b9283d61830aU,
  0xbd5815843d3dbda2U, 0xbd5346d2bb5dade7U, 0xbdd66efebbcd5953U, 0xbd0d3d0ebddac483U,
  0xbe866faebdeaafe6U, 0xbe3dfee9bd9f593bU, 0x3d4d621a3dc594c4U, 0xbe941bacbda3e59fU,
  0xbe09999a3e6253caU, 0xbdcd9a59bdf0d8eeU, 0x3e8af394bd972e12U, 0x3d021767bddbe0d5U,
  0xbd35ab783ce20f8cU, 0x3cf1e39bbd2b07dfU, 0xbd82de4bbda94156U, 0x3d7a2b74be373bf7U,
  0xbe849b6c3d80548fU, 0xbd49a8be3dcef6d5U, 0xbd8a0ef03db05ce9U, 0xbd085e003c897960U,
  0xbe60375dbda2c7b4U, 0x3d92cbc83c9d7118U, 0xbd2b6e1dbca102c6U, 0x3c9014603d8b076cU,
  0xbcfdcd3d3c660e84U, 0x3dcd97783e411f8dU, 0x3da22d5abd89f3b0U, 0xbddd7dd2bc5566e2U,
  0x3c9b34e3bc82ced8U, 0x3e1e4bd73c05115cU, 0x3c2228963c8edb50U, 0x3e3b5e4c3d9eebe4U,
  0x3d9f097f3c502278U, 0x3d620d6c3c54a2a1U, 0xbd9794a53bcbd905U, 0xbd2abe043e221633U,
  0xbdb80635bd321e03U, 0xbe144e3abc47c1c5U, 0x3d2bd94cbd19d97eU, 0x3e189963be23a29bU,
  0xba532cde3d9dd10cU, 0xbd40e1fdbd51068fU, 0xbc17a1fcbdca5de1U, 0x3d916d54be4cdd9dU,
  0x3e044210be246024U, 0x3e339b473d702080U, 0xbddcf6633e1433b1U, 0xbb202e94be015059U,
  0x3c5a64e6be340c1eU, 0x3dc5723e3d33ea06U, 0x3e3666cbbd117fbeU, 0x3d887f923df9a5d3U,
  0x3e163ae2be45a7a8U, 0xbd7a9382bd9deb5cU, 0xbd84c476bdb7b0ddU, 0x3e51ec86bcc5a572U,
  0xbd1887083c75cdcbU, 0xbe2c6017bcc59fc1U, 0x3d96a260be84c959U, 0x3d5cb8023cf53d5dU,
  0x3e0e5479be4d8f0dU, 0xbc2f80f0bd318ad3U, 0x3dd21e7e3d9e61d0U, 0x3e8908693e09d1b4U,
  0x3cd271213d4d96afU, 0x3d4e7f543e06e2a5U, 0x3e674ccabd681f05U, 0xbe2778563c409117U,
  0xbe0133483e2a63a2U, 0x3d2c5efbbe4ef3b6U, 0xbc4802b53d127e07U, 0x3dfee1c4bc40f1d4U,
  0x3dd0b003bd8ec92cU, 0x3cd96b923b9b7804U, 0xbc568b303c5ab96bU, 0xbd3bd73dbe32a156U,
  0x3e302b50bd28b8e7U, 0xbc6ffaf63d389254U, 0xbc663d2b3e3d088cU, 0x3c427b7a3d60bfceU,
  0x3e3480963dc541ffU, 0xbddecc0abd12b3bcU, 0xbc773ada3d49f171U, 0xbcb4949ebe3e0914U,
  0x3dcd3f39bd125581U, 0xbba265c5be36bd01U, 0xbd7d89073dff80a9U, 0xbd4092753e612fd1U,
  0x3e064663bd76d62fU, 0xbe093677bdf7d8a6U, 0x3cb81da13daa6824U, 0xbdffd59bbd51260fU,
  0x3d71ac253e1634baU, 0x3d21515a3e1540f1U, 0xbda442153dc4ca54U, 0xbd259d473e167fe6U,
  0xbe5ffb7f3df32977U, 0xbe41cf033d50cbafU, 0x3dd0aa6a3da962f0U, 0xbca0d9cf3deb41a8U,
  0xbe3213acbbc704e4U, 0xbe1bebbbbc8f0f25U, 0x3e20a1c23e4a21f7U, 0x3c3f4b073dad4069U,
  0xbd1d539b3e033440U, 0xbdf7de113dee1350U, 0x3d807a353e072767U, 0x3c57343eba6277f9U,
  0x3e63751a3d58c6e8U, 0x3d493d1e3dcb1526U, 0xbe25d1ca3d982f62U, 0x3e365ccbbe63313aU,
  0xbc9d6e2bbc0b6ca5U, 0x3de2852abcfe70afU, 0x3c9f96053dc11d44U, 0x3d46bbecbd4a8d97U,
  0xbc57a5b5bcbefa84U, 0x3da27cc7bd77158fU, 0x3da54eda3bd9e264U, 0xbe3fa1c73e3d08c3U,
  0xbe2c5fd63cf0afddU, 0xbd10d151be158b8cU, 0xbdfd9624bd9c6bb0U, 0x3dc8414a3d4c0a8cU,
  0xbe25037cbb3c919aU, 0xbdb761e0bdbb0ac7U, 0x3e865497bc1a4f4dU, 0xbdabc5713d300e87U,
  0xbd61e4223dfefe7aU, 0xbe0f8ff63dc8db2aU, 0xbdf30500bdf1d7f8U, 0x3e813fddbe26cf2aU,
  0x3e1089223da3a1e4U, 0xbd3d46a03e6dd6aeU, 0x3cf7c3a83cf2f67dU, 0xbc4681d5bdeb421dU,
  0x3ddd3c293d87ff12U, 0xbe06853d3dc9b5d0U, 0x3d86f016bdfdc046U, 0xbcd0513d3d96995dU,
  0xbd87e472bd3eeed0U, 0x3e6278d73def75b9U, 0x3e3132bbbd15297fU, 0xbe28d50c3d341465U,
  0xbcd64b583dbf46a1U, 0xbe011bfbbd9f48d7U, 0xbcebad9c3d890654U, 0x3da1edfc3d98619cU,
  0x3dc0aa86bde4c4bfU, 0xbc57c648be325e97U, 0xbe57b3c53e3d5c27U, 0x3d5f19bd3e2226c0U,
  0xbcfcbf65be0bc12fU, 0x3dfc1db93dda8a39U, 0xbdbf846c3d931587U, 0x3e6b92413d4a55ddU,
  0x3e660ac23dbd9610U, 0x3d6163f43d0f5cfbU, 0xbb7cf506be6afe14U, 0xbe35fe3cbdec4f8fU,
  0xbda62b30bdae97c4U, 0x3d3a06c4be59a210U, 0x3c488d3a3e80752aU, 0x3c1502923d6161ffU,
  0xbc1724dcbd1cd32eU, 0xbcd2f1df3c717c0bU, 0x3e0320c73ccbf29fU, 0xbdd870f83de139a7U,
  0xbc0e158f3c6f1285U, 0x3dd618a8be56d949U, 0xbd7a80c63e1dc25bU, 0x3e5bd8f73e32d9caU,
  0x3e51362b3dfbcd52U, 0x3ccc71593d9ed597U, 0xbd3288e23dd6505cU, 0xbe03f376bd293d6dU,
  0xbcc74b58be1eee85U, 0xbd8b94d73e0a3c80U, 0x3d73e48dbd753948U, 0x3dc164673de163a3U,
  0x3d001a9bbdbb6890U, 0xbdb8f526be03dc48U, 0x3e14ac9bbe442889U, 0xbe160012be16dfbaU,
  0xbe054b88bb3dda78U, 0xbb82257cbeb2225aU, 0x3cc22edb3c35aa73U, 0x3eb963f7bd559297U,
  0x3e1fc52fbdf8fcc9U, 0x3e48c8113ccea820U, 0xbd2a4a753da1382aU, 0x3c1c8399bd68e2d2U,
  0x3c55f01cbda3b9cdU, 0x3da736403e305ab2U, 0x3e7f85e8bd151365U, 0xb947584b3c903185U,
  0x3dcae73b3d52a6bbU, 0x3e11747abdd47244U, 0xbe5de6cebe61baddU, 0x3ddd509d3e111442U,
  0x3d5bd5e8bc61fc07U, 0xbd9a22613dd2b2d3U, 0x3e16f7df3dea3a72U, 0xbe1df3c0be07428aU,
  0xbd8bd5513e051d6bU, 0x3d5869c93d0af4a0U, 0x3e520f8b3d4861feU, 0x3dfd4284bd8a657fU,
  0xbdbc36b8bd2d3e2fU, 0xbda7ebe5be78e887U, 0xbd8fe4363d60cc99U, 0xbdfe76bfbe1ca51dU,
  0xbe396a82be1b1900U, 0x3d41ab83be63f6a0U, 0x3d9f0c6abe3e5cb7U, 0x3cb902223e06fe60U,
  0x3da9654cbd63adeaU, 0xbd90d8703d68a3c7U, 0x3dc722a1be8501b7U, 0x3e845ae13d2d9a5fU,
  0x3dfabf7abdadea9bU, 0x3d252c483e1865e3U, 0x3ddafc6c3d4d410bU, 0xbe7b0da23d84ef75U,
  0xbd206bc13d0e3947U, 0xbd45a92bbe394f65U, 0x3d3a0257be89b550U, 0x3dcad20fbeaad7e0U,
  0xbdbd780a3d3a5821U, 0xbe295b6bbd568f14U, 0x3c2ebf12bddc231fU, 0x3d84c90ebdacdad5U,
  0xbc7d25a93d93a173U, 0xbe4f6541bd87b025U, 0x3de373bcbd869374U, 0x3bc9d10abe553448U,
  0xbd7ee7d0ba1528a0U, 0xbdeb64ec3dca430dU, 0x3e524e403dddc546U, 0x3dfcecf93c5038fbU,
  0xbe528a51bdafbc2fU, 0xbd6bbdc13d3b0ea4U, 0x3e43f2c8bda06a24U, 0xbd823c8e3e03d549U,
  0x3de5ce7cbd3a4f4eU, 0xbe61d6e53ca67f2eU, 0xbdb46044bd5316f7U, 0x3dfd4465bcf94ff1U,
  0x3d4482d0be3cc542U, 0xbe061910bd2e1142U, 0x3ca7e5e23e1f63d4U, 0xbd9d3716bde29648U,
  0x3df03ef0bb628e73U, 0x3e16758b3c450965U, 0x3e135371bd6de7a3U, 0x3c6069bd3e0fc398U,
  0xbe3dd46f3e6bd5e2U, 0x3d96fc333e2c36fdU, 0xbe632f47be04b262U, 0xbdacd4c1bb09f308U,
  0xbc6a01bc3d5dd01aU, 0x3d7b8eaabdf4f1a0U, 0x3e072245bdc95b1aU, 0x3d1070cb3e8fd7f5U,
  0xba4e6be33da8a235U, 0xbd2bf28ebdbde794U, 0x3d3057ddbe1b7000U, 0x3df03098bda504aaU,
  0xbc81093c3b8f6df4U, 0x3e8012bd3e0cf380U, 0xbd0502f1bdaac3c1U, 0xbd45bc423d700deeU,
  0xbd4840c03dac48afU, 0xbd4885cb3df42111U, 0xbe22b2bebcf46437U, 0x3dbe09133d0f5304U,
  0x3a17b002b9709d67U, 0xbde881123d58831aU, 0x3e06c50d3a6a5f51U, 0x3d4d33d7bdd65adfU,
  0xbcad7b6d3e22ed3bU, 0xbc41a34abc862b9bU, 0x3d81daad3e0e526dU, 0xbdc1b8773c1c465bU,
  0x3c6ce2463e0c076eU, 0x3ce038d0bde98480U, 0x3e16ad0bbe1a844bU, 0x3dc51fdf3dea94e0U,
  0x3a6f16833d48fe6cU, 0x3c33f95b3dcef6eeU, 0x3d0557c0bd8eb95fU, 0x3d81f0303c1aef7bU,
  0x3e918ed03e165f24U, 0xbda990b7bd8255adU, 0xbd5eff003de7bceeU, 0xbe1055da3ceb1926U,
  0xbe01d024bc690dacU, 0xbcd0be64bd644fb1U, 0xbd8c8898bc080448U, 0xbdecadea3d26dfe0U,
  0x3e2235f5bbf35f99U, 0x3c8d58203c072ec8U, 0x3bc140213d13ab30U, 0xbe3319debce9a3f0U,
  0xbbdbbe793de5f74dU, 0x3de6af4a3d551b49U, 0xbe3d73b5bd50f6a4U, 0x3dde5a55be063d8dU,
  0x3da6568c3e1669eeU, 0xbe096ab23d087865U, 0x3e1c26583d172000U, 0x3d0ae7263d01b131U,
  0xbd8905bd3d8b7190U, 0x3d927221bd0aa8fcU, 0xbe0b94d4bde3f66dU, 0x3e834f553c45c5e1U,
  0x3ca4cd44bd8f196bU, 0x3e128a003de6f55aU, 0x3d38c8033e1b8bd2U, 0xbe0725eb3e2b340fU,
  0xbde1d23f3dabc2c1U, 0x3e35c15b3d7d452aU, 0x3e4384dabe076c11U, 0xbdefa247bde5314fU,
  0xbd85ebc73d5ed3c0U, 0x3dd5778dbdddbb26U, 0xbde34b8e3befec5fU, 0xbdee8f7cbd499f48U,
  0x3e23f2e4bdd0e837U, 0x3cbacfc2bdedc4a0U, 0xbcabc692bd0ad420U, 0xbe27c21bbe269f4eU,
  0xbc342cfbbd6d8838U, 0xbd9a5fcfbca87d45U, 0xbd3396fbbdcb98d5U, 0x3e835f223d8ad340U,
  0x3d4d5f7f3df613deU, 0xbd1cfb063dd8062aU, 0x3c79682a3e12c8d1U, 0xbdd462eabd5e4517U,
  0xbe56d0ab3d9955f1U, 0x3e4e70823eb417caU, 0x3e08235abeb304d8U, 0x3d70d3ef3de4d7bfU,
  0xbe8bac673ea4d65cU, 0x3e01955cbd9e4f7dU, 0x3e24e7f93f088fbcU, 0x3cf3a9e43e87a8dfU,
  0xbe3581433ee33b5eU, 0xbe2acb803db722fcU, 0xbe859f2cbda686a8U, 0xbce4cb91be0770aaU,
  0xbe8b8832bea45855U, 0x3960a603bdeaaa33U, 0xbebdc9dabe927c4aU, 0x3edfd9c6bd8ac8dfU,
  0x3e1240f83ec1d842U, 0x3de748f63daae64bU, 0x3e849c623edbb859U, 0xbea787cbbe4d30d6U,
  0x3cd038a1bd38e122U, 0xbda540703e348f7fU, 0xbea1bf1ebbdddfacU, 0xbea41fa43e457b14U,
  0xbdbc36a5bc8c5475U, 0x3e901f8ebe4168b0U, 0x3c9b59bdbdf81ba3U, 0xbf0565353de35b8dU,
  0xbe520e743f0c222eU, 0xbea6a3833ea7a73eU, 0xbe6ffc1e3de0f2daU, 0xbe9fb5c0be70a3adU,
  0xbdaf47cebb953b20U, 0xbe3065cabe1cfdfeU, 0x3e3db30cbdb895a8U, 0xbe17f6d1bcf2efa0U,
  0x3b81d194bbdd912dU, 0xbd43a4c7be3c0a6bU, 0x3df0220bbdaef7e8U, 0x3cab00bdbe73eb61U,
  0x3b3fb6e83dca6100U, 0x3d72591f3e160a31U, 0x3e91e8c5bce11610U, 0xbe06255c3dd75859U,
  0x3db460e13e0ee40cU, 0x3d38f3723d2634ffU, 0xbe0b6883be83a590U, 0x3e136c72bde6265eU,
  0xbdfe29673e322e92U, 0x3c1706fabddc42b5U, 0x3e38a90fbe459775U, 0x3dbb497bbd06a11dU,
  0x3de2b61f3e060d51U, 0xbc68f4323c739968U, 0x3e062e52be7a1a49U, 0xbd754b7ebe5cdbf2U,
  0xbe90135c3e4c709aU, 0x3dbbdd523df28d1aU, 0xbdb948c53c0613d5U, 0x3e7e9ec53ddc5b8aU,
  0xbd4592563e248aa9U, 0xbd0d39f4bdd3889aU, 0x3d17be453e2f4ab5U, 0xbe86c5ffbdddca3cU,
  0xbdca91a33d1baf86U, 0xbd8279a5bde87822U, 0xbe6cf3f73e5e8f89U, 0x3dbf8c4b3e793af5U,
  0xbd7c7647be0a82b9U, 0x3c8277bfbdebdedbU, 0x3d911d11bd07c9e4U, 0x3cfc293b3e22bb7bU,
  0x3e3712a53de8ffc2U, 0xbe0a93e63cda0828U, 0x3d257786be1611a7U, 0xbc31a957bdce29dfU,
  0x3d06d8d0bd8fd74dU, 0xbc8f3d50be0d47a2U, 0x3e5e7ba0bc06c1f5U, 0x3bf4d5713d4672e2U,
  0xbbcd89d93cd8cdbdU, 0xbddfaef2bdcb2da1U, 0x3cdccd463d483f51U, 0x3d19e97dbe4e4763U,
  0xbe1e8d3f3e567467U, 0x3d8c468bbd1aa2deU, 0xbda46cf23c5ba276U, 0x3e291ef4bd03b81bU,
  0x3cdcbd5dbd408844U, 0xbc2879643dda58b0U, 0x3d7b705ebe09ffbcU, 0x3e266208be29f10fU,
  0xbe3342d1bd4776e5U, 0xbd5fe9a63de873a9U, 0x3e4d128f3d0a3c22U, 0xbd5c03e93e561369U,
  0x3d9d0ede3dff13cdU, 0xbe16fef1bd99ca3fU, 0xbd4615db3ced17cfU, 0x3d0fe73a3d93205aU,
  0xbcea74cdbd017f12U, 0x3dc3561abe8df2bcU, 0x3c69c7c9be025636U, 0x3d15a1bc3dc9fe3aU,
  0x3d10e274bc631c13U, 0xbc17682bbd9ba9faU, 0xbe39c9eebdc4b9c2U, 0x3d97636f3c92fe63U,
  0xbd4d06c23e5979f1U, 0xbde6ed1fbdc612e6U, 0xbd60f3fd3e01d244U, 0xbd2448d9bd173025U,
  0x3d311383bdc4bcfcU, 0xbe2093a7be40f592U, 0xbd4aaff0be817102U, 0x3dbeba9c3e59dab0U,
  0x3e1e07683d2635d4U, 0xbd32766b3c9a023cU, 0x3e19d20cbda4afd1U, 0x3cae4e37be6fb0b8U,
  0x3e33bae63deaac5cU, 0x3e3901bebb7a10d0U, 0xbd96424f3dd51e22U, 0x3e8abfcd3dec0af5U,
  0x3c8b4b693d9c1438U, 0x3d28937dbd918d2cU, 0xbbd78a2abd850b16U, 0xbca316cabc74473eU,
  0x3c97b586bdb2e1c6U, 0xbb18b25f3cbafbfcU, 0xbcc78a7ebe2939bbU, 0xbd412a223e75b35fU,
  0x3c250670bdb3d866U, 0xbdc4d02a3e3a8f28U, 0xbc2787583d0efe47U, 0x3e575328bd584b7cU,
  0x3e88f0f03cc251acU, 0xbe495e32bdeb181fU, 0x3d2192263c6d6ff7U, 0xbe4a9efabdf8cf03U,
  0xbc028fb43d3df363U, 0xbc88c4e43cad2972U, 0xbce51e05be3e95d8U, 0x3e1dd3953d93560bU,
  0xbd900d9b3c5444e8U, 0xbe1f5a493cd42dc2U, 0x3e294d0a3b09470eU, 0xbdd4fb8d3cea9c98U,
  0x3e2937aa3db6aba0U, 0x3cad9d29bd0fa4e5U, 0x3e38e4673c6d907cU, 0x3e1aacc1bd34a4c2U,
  0x3d85bd7c3e3b68c6U, 0x3e283af33e45b3b4U, 0x3e1da8613df815a5U, 0x3e4007333d823c62U,
  0xbe814f4cbd8834f3U, 0x3cc2c9933c9d9d76U, 0x3c8c95583de09e38U, 0xbe4d56dfbd5c179cU,
  0x3df98388bcab847cU, 0xbda09540bdb0497cU, 0x3d6f0a11bd24ed9bU, 0x3d0aed683dd65405U,
  0xbe3778c5bcedb014U, 0x3d6481693d047662U, 0x3db833dbbe046b7dU, 0xbe571a3b3dc726fbU,
  0x3c982ad1bddb72ceU, 0x3dda9ad5bc1038cdU, 0x3dfbdb7ebd507435U, 0xbd7b0eaabc24b952U,
  0xbdd35c473c1012b7U, 0x3c7a67853d97bd1cU, 0x3d2189c83dd3e9d4U, 0x3dd1fdd83e900edaU,
  0xbcfcf3173cf393f7U, 0xbc5b1e8abe0c44c7U, 0x3b1fef89bd703860U, 0x3e30d0b8bea44f07U,
  0xbd54785e3d1f2cbbU, 0xbe566b663e6f8577U, 0xbcdc5253bd41b031U, 0x3e29bb54bc94c350U,
  0xbe1bd3f8bd5d8a90U, 0x3e5032673d533f74U, 0xbe20a350bd7c24e9U, 0xbe054292bdfba72eU,
  0xbd9855ff3d46f976U, 0xbd8b6cadbb5459aaU, 0xbcdb1bf9bd812173U, 0xbc98cba03d1f2d8dU,
  0x3dc7c8debe4c7fe8U, 0x3e208e263c963099U, 0xbe6302843d317c11U, 0xbd069d153e14d8f1U,
  0xbb1972e7bdb834f6U, 0xbdbf29523a810991U, 0xbda6319c3d4bc295U, 0xbdffa4b53db367cdU,
  0xbbd6c3c73c9d9c50U, 0xbd5331e9bcb50869U, 0xbdf3302d3cebbb85U, 0xbcc55265bdb23e43U,
  0xbdf9e2f93dde7375U, 0x3ceff4f23d54887dU, 0xbb6e12d2bc8da988U, 0x3dfec9303d8d2fb4U,
  0xbd480b74bd299f3eU, 0xbc6016fe3e186cf7U, 0x3cd5e8c33e040498U, 0x3cf541f63d37a0d0U,
  0xbe51fe36bc841dc7U, 0x3d9ed27b3cee392eU, 0xbe2ba3c53dd5064cU, 0x3d4302013e0a8471U,
  0x3e17cb4dbdc7a15dU, 0x3e551a01bdaa3e7fU, 0x3ced5ca7bc40e116U, 0x3cccc4d63c247947U,
  0xbbd4fff9bd3d9e73U, 0xbd98df3e3e794e84U, 0xbc74e1613da256b2U, 0xbc0ec97e3d7b200eU,
  0x3df08d1dbc104633U, 0xbe548c77bd445fa2U, 0x3e621c43bd3f51baU, 0x3dc2b08abe7ca00bU,
  0xbcdaf952be2da9c5U, 0xbe57bfc93c992f5bU, 0xbd864ed13d3b4f00U, 0xbceb5a63bddc83bfU,
  0x3d7bd2e93e314fa5U, 0x3d4ad590be628d9cU, 0x3dbecdd23d05e43fU, 0x3e3c83183e5371aeU,
  0x3e0ef11bbdf80d6cU, 0x3bffe9e23dd4c441U, 0x3d828eabbd90a646U, 0xbd00f7713dbde1acU,
  0x3cedc2f73d2b1bf8U, 0x3b3c8da9bcebf11bU, 0xbe078252bddb417dU, 0xbdb3aa273e4274f7U,
  0x3e2362a03e43daa1U, 0xbd801a4a3d3724deU, 0x3dc620d5be956a1aU, 0xbd60aee5bd213a6fU,
  0x3d1a0fd5be0fdd33U, 0x3e137e0db9a842d9U, 0x3df6b0bc3cebeb17U, 0x3e35125b3debc2bdU,
  0x3d93cd48be1c3e94U, 0x3a9c9a1bbe0ff584U, 0xbdbbb28c3e70de73U, 0xbdd36c4b3bda952dU,
  0x3ce5f375bc434cf0U, 0xbe2e375cbe6e0e2aU, 0x3e254b01bcf7e1e3U, 0x3d4293823d9591c5U,
  0xbc539f6dbe03214aU, 0x3e387d073cf9b60cU, 0xbe26218bbd31e8e4U, 0xbd6f5311be4283baU,
  0xbd3b5de3bd2b1d3dU, 0xbdaf4106bdb12866U, 0x3d6bea24bc517b7bU, 0x3d0a508bbcdad68dU,
  0x3e681cacbca32b95U, 0xbdc41a27bbf81b58U, 0x3c96198cbdfe59c4U, 0xbe8027943e57ac7bU,
  0x3da3fcc63cd6f598U, 0xbdc6f2f03df4556cU, 0x3de6bd393cc852efU, 0x3cb9fd6cbd9ed74aU,
  0x3d8694a13da69451U, 0xbe056650be6bb647U, 0x3bdcf6b3be5b47feU, 0x3e344969be3d46e1U,
  0x3e4f0550bd760826U, 0xbe32312ebc8928f5U, 0x3d0bd0a2bdd7a1b6U, 0xbc9cbd0f3de24e42U,
  0xbc42f2d53da7a67dU, 0x3dc3c58fbd8c3dbeU, 0x3ca21160bdec1554U, 0x3dc1a10ebddd4f56U,
  0x3df0f458bce9dbd0U, 0xbad477e83debed88U, 0xbd447af9bc8eeb1fU, 0x3ce1a7b33d844460U,
  0xbd56a6083d9cf330U, 0x3c06fad23d4078d6U, 0x3d94e562bd532810U, 0x3c08066f3a29fa88U,
  0x3bdc8514bc3869b8U, 0x3c315a70bd553ae3U, 0xbdb9e3593df2be3cU, 0xbd61e34e3e1fea67U,
  0xbd86ef493d60a73eU, 0x3c27d482bdf10854U, 0x3cbd6187bcc1c2aaU, 0x3e686c163e464d7bU,
  0xbca6c9ebbe0a3b05U, 0xbdb8e71fbb86cae0U, 0xbcdefa39bd0d2574U, 0x3c8b015ebdebe7f4U,
  0x3dcd73f33dadc28bU, 0x3d355f4b3d421538U, 0xbd83fd45be7be093U, 0x3e1072833d647b93U,
  0x3bfe92b93c3458f5U, 0x3e76b0713c19110bU, 0x3e0057d63e61f389U, 0xbdc9aa593d80f512U,
  0x3d65ff033d8d4979U, 0x3c8321b43df63843U, 0xbcf4da3b3d0b013cU, 0x3e2416fc3dd07e20U,
  0xbdaf9e633e87289eU, 0xbc45b3123e14b2d5U, 0xbd491639bc568b9eU, 0x3e36e72c3e100fa6U,
  0xbd1900183de6be26U, 0xbcdded443d2cee46U, 0xbcaf6830bd07f575U, 0xbd0c19aa3dba12d3U,
  0xbd7c922cbdea520dU, 0x3e29b8d7bda20bcaU, 0xbe141243bd8f076eU, 0x3e38dd20be5c8bd2U,
  0x3cb4021bbe2062e7U, 0xbdf4677cbddb720eU, 0xbc5f5f913d83d575U, 0x3e4943bf3e2a04abU,
  0xbcb3225cbd263b6eU, 0xbd4281bd3c84e1bdU, 0xbd8b75ea3ab25a92U, 0x3d1a8627bc34b4cfU,
  0xbcfa4cca3de25fe6U, 0x3e40f7d33e38facdU, 0xbb7995003e78323eU, 0x3d9776213db31996U,
  0x3df601e1bc1e8597U, 0x3e29e052be2b55ceU, 0x3d1fae4a3dd25b6fU, 0xbde0d7313bed1384U,
  0xbd4d4bfdbe05bca3U, 0xbdcd7796bd4ba979U, 0x3d86cc49beae67cfU, 0x3c0caad83ce6f4aaU,
  0xbe2dc554bdac32dbU, 0xbe37d2813d821005U, 0xbd80171cbd6a8c80U, 0xbdfcf5943e4854d9U,
  0xbd3512d83df3ed6fU, 0x3d1ba5debbb66864U, 0xbe3a345c3de7fc25U, 0xbd31330bbcc71006U,
  0xbe006be13e09c72dU, 0xbd1ff37cbe22bdc0U, 0x3d4c51e93d5423dfU, 0x3d04b6a83cb47558U,
  0xbd02ccdcbd9228b2U, 0xbe55baa2bd700f0fU, 0x3c78ed253df656b0U, 0xbc8c1c8f3c94530cU,
  0x3bd8326ebd9feb37U, 0xbcbd5b443990e30dU, 0xbd37cf05bdd9f44dU, 0xbd278b793d255a69U,
  0xbd367289bd85aa5bU, 0xbcdf17cdbe1a8dc9U, 0xbd2039d13cf72313U, 0x3dfba05bbcd8a8efU,
  0x3c33ae403e03dee8U, 0xbe1151963e231c55U, 0xbd0d7d63bd4ca6c9U, 0xbe4438b6be47ffadU,
  0x3c3e09db3c54f0deU, 0xbd98059cbe24cb2bU, 0x3cd0e5d4bdbbc709U, 0xba49e8d6bc923252U,
  0x3e4f03c53d9e5089U, 0x3b83401b3da744b5U, 0x3cc087babb21b592U, 0x3e04b8fabd7f7aa1U,
  0xbe24cd4e3bd3677fU, 0xbdcd5587be02d143U, 0x3bc2e099be08bed0U, 0xbdfa15073beee66cU,
  0x39c1aaf1bd61b54bU, 0x3e1a818f3e769f8eU, 0xbacda3b73e542022U, 0x3da9dc80bd5641ecU,
  0x3d7155dc3d86709aU, 0xbbacc84c3e0e8ae3U, 0x3d76ada63db22972U, 0xbb82a0d03cac5f6eU,
  0xbd814a0dbde8b633U, 0xbcd2e7193ce38a55U, 0x3dc65d053e52ae4fU, 0x3dbab9a7bd05086bU,
  0xbd77ba3e3cc76cc4U, 0x3cfa22363e85d99bU, 0xbddcf6c73e040ff0U, 0xbe20abeebccd7cabU,
  0x3ce133cdbbea0572U, 0x3da105973d76e085U, 0xbe4ae92abbcd76f9U, 0x3de9572e3e045c4bU,
  0xbdcc78e6bdc87706U, 0x3dbea4fd3e1a3187U, 0xbc8207d3be9544b2U, 0xbc9b7252be050bedU,
  0xbcca2bfe3d01cf9bU, 0xbe1a85acbe1a8705U, 0x3e2164743d9b8f6bU, 0x3e5321aa3d8924dbU,
  0x3d961019bd4af045U, 0x3d1b6ae6bcd455c2U, 0x3ada540abe264070U, 0xbd65f5bd3e24d21fU,
  0x3e16a707bc179685U, 0x3d7b670b3e8c08c9U, 0x3de8d9c23da8a561U, 0xbd1bc9cdbb88a1beU,
  0x3dbbb1aa3dce5419U, 0xbd75cc6a3e0b95c7U, 0x3dc2a6613c2dc7d5U, 0xbddb20de3e08ad83U,
  0x3b1202ca3e52b6aaU, 0x3ceb6bbd3c28986fU, 0xbdc25e19bde2f5aaU, 0xbcaea643bd9966a5U,
  0xbbcb0852be22526eU, 0x3df03ad8bc7770d8U, 0x3d9568973e0cc214U, 0xbd81013ebe32d42bU,
  0xbd88b26d3e0ec779U, 0x3da4391ebe0fe00eU, 0x3c8668123de4e34dU, 0xbb83250dbde11422U,
  0xbdaad83e3d7919c3U, 0x3dc4d4493d72bd10U, 0x3ba9f0febe1b4ac8U, 0x3dd017e7bdf9fd97U,
  0x3d902dc6bc8c3f08U, 0x3cac41a6be2bd9a0U, 0xbe34c0923ddc1205U, 0xbe46e76a3d815a2cU,
  0x3c117323bd0db3bfU, 0xbe40e9383e1e858fU, 0xbe46f887bc7539feU, 0xbd444f90be200451U,
  0x3e99186c3db417a9U, 0xbe347739bc0a5564U, 0xbcf365773bf8a9c5U, 0xbe8be8fcbddcc2a0U,
  0x3c888b0f3d81f1ecU, 0x3d7ab2bd3c8908c1U, 0xbd15d131bcc59420U, 0xbdcef4303cfe27adU,
  0xbe360def3d1f0f07U, 0xbe1a89763cbc10caU, 0x3dab7cd9bd66b77bU, 0xbdedad73bdb9ec1eU,
  0x3cc046573dd1d322U, 0xbd4eb6f6be159b79U, 0x3e2bbcf9bc377748U, 0xbe27ee8fbe2a7792U,
  0x3dfb4552bc969e6cU, 0x3e486f8a3e02dd22U, 0x3d8b2efabd9d2fe6U, 0x3e31f7acbe1d33f1U,
  0x3cc9f242bbae8a23U, 0x3d278a823d967ec3U, 0x3e7173743d205c3eU, 0x3da47d473d5844aeU,
  0xbe168baebe0d54a5U, 0xbe281994be737c26U, 0x3b4296f73d34ccc3U, 0x3e85eb29bddafd99U,
  0x3c100304bd87e121U, 0x3e6c8cb83e5443baU, 0x3c55814fbd62c11aU, 0xbe327bb23e32df15U,
  0x3df69f76be4f83dbU, 0x3bc8e538be682fc3U, 0x3d4307fa3d90f5b1U, 0xbbfcb7fa3dc315fdU,
  0x3dc8e7ea3e808e17U, 0xbd99563c3b814067U, 0x3e2d35e63e9d3b12U, 0xbea761ef3e6dc3eaU,
  0xbe8f0024bb57c15dU, 0xbdfc0deabe746ea5U, 0xbe06a8933cd37b64U, 0x3e133471bdf47c85U,
  0xbe09221cbd2ec15fU, 0x3e34d5233da0ce37U, 0x3dd4eea63dd610a7U, 0x3e313cbdbe90b6cbU,
  0x3dde154abe0a53abU, 0x3d3083ed3e6242adU, 0xbcf889cb3e69ebdcU, 0xbd450a3abe8e3764U,
  0xbe023599be13a8d4U, 0xbe472d133da70ea7U, 0x3c993206be18f6f0U, 0xbd4a1fa63e1fa4a6U,
  0x3cbfb4b7bdccf902U, 0x3b3e5875bdc312cdU, 0x3e19727dbe0a4573U, 0x3e0b97abbe095f6aU,
  0x3d81dc403d77c364U, 0xbad89d19bd8b507aU, 0x3d3c459ebc992022U, 0x3d3ba4e3be9b79d7U,
  0x3e74ad30bcad6a70U, 0xbd006cc4bea3d1e4U, 0x3e2cfa193db8c4c6U, 0xbcf1ce773dce8426U,
  0xbda656cf3e82f6d3U, 0xbdf721113ced70d8U, 0xbd2361b3bb83f5bfU, 0xbdbdc0ce3e56e465U,
  0xbdfaae71bd60bf77U, 0xbe02c5853dcfcd94U, 0xbe07edebbd5ada7bU, 0xbe17473abca1d5acU,
  0x3c36ecf73e52903dU, 0xbe254a8fbdae56abU, 0x3e289a34bda9577eU, 0x3e28ef7ebe80edf6U,
  0xbdee64d03d16dcc3U, 0x3e21a65d3dd17792U, 0x3d47aceabd2956f4U, 0x3c459c0c3dc8a3c7U,
  0x3d9518d03d9e8ab2U, 0x39544819bd9dfddbU, 0x3b4252993bfe160aU, 0xbda629f8bc9bdbccU,
  0xbd6c4f4abe2e934fU, 0xbe4a3c38be416c49U, 0x3c01c5a33df948ffU, 0xbe12830d3c5a18a5U,
  0x3deb3fc9bde7b009U, 0xbe18bcabbe1839b7U, 0xbe7f4dadbdb6f106U, 0x3e375c75bdd0c1beU,
  0x3e0cea17bb050a53U, 0xbdebe1b4bdf91393U, 0x3d3aaf4fbd9316eeU, 0x3c2290aabd90f3e8U,
  0x3ceb03d53da49905U, 0xbe38e7acbdd0815eU, 0x3d17bae53c3a58feU, 0xbe1c542cbd9b4ea8U,
  0xbdf4fe1a3dc9be98U, 0xbe3e0e783ba4db10U, 0xbe27e816bd90105bU, 0xbddaa0463da2b48dU,
  0xbbb48a9bbc9e31d0U, 0xbca888c8bbdca534U, 0xbcfa38ecbdf43a81U, 0x3e35ef1ebdad60d7U,
  0x3e4dc0793e728ebbU, 0x3d8587933e0270c5U, 0x3d0732eabc61c3ceU, 0x3d0fbc5bbdaa09fbU,
  0xbdbef8a9bb9909b0U, 0xbcb53823be72bb46U, 0xbd850b253d8a35b5U, 0xbd15c6283d9da694U,
  0xbde860993d8d0a89U, 0xbcd82ca93d812b08U, 0xbe34e0f4bdd67022U, 0xbd72ca9b3c2ea464U,
  0x3d90848dbe1e59fcU, 0xbe0ae98b3db2ebbdU, 0xbd8e99243deeed84U, 0xbe310d43be64b00fU,
  0x3e8a47373dd4fcfaU, 0xbd038178be22493aU, 0x3dbf3204be547700U, 0xbe921cd4bda88fcaU,
  0xbdeccf643e23eef0U, 0x3d9f5431bb2eb5a2U, 0xbdff5b5fbe376121U, 0x3e2b3996be4c6fd6U,
  0xbe4f5e213e9b5038U, 0x3da7a216bea82c74U, 0x3e84a4903cfbeac2U, 0xbdb695673d9973e0U,
  0x3da92ac63e744d6dU, 0xbd9391b73b11be61U, 0x3dd62708bdcf5e47U, 0xbe326ffcbe69cbefU,
  0xbcf8150b3d369a51U, 0x3e8845383e2134a1U, 0x3db089d03d5032d7U, 0x3ddc4600be8e9d75U,
  0x3d0973ef3e4f95d4U, 0xbd721e77bd657935U, 0xbdb6af983e935ba8U, 0x3d288c1abea8fd4aU,
  0x3deae51a3e1de745U, 0xbcca187b3e17dccdU, 0x3e952a973d874d08U, 0x3e10b5313d85b1f1U,
  0xbe3b33a4bc98f275U, 0xbdc94907be364b4bU, 0xbdb6ee1dbd3f1d8aU, 0xbdf5ba71bdbfdee3U,
  0x3e2fce79be48b87cU, 0x3d56b9f53ba5c734U, 0x3d32f5c43e2c1f87U, 0xbd68ec703e624e02U,
  0xbd1adf81bbe0d7fbU, 0xbdbd0a393e038558U, 0x3e050f25bc3a3b66U, 0x3ddfe1663e0e7aeaU,
  0xbd699b8b3bd4cfaaU, 0xbd6d4df9bd8353cfU, 0xbe2766b03d0169f6U, 0xbcbeea50be0ebb65U,
  0xbcad4cb3be0743aeU, 0x3e47861e3e0bd5a7U, 0x3d8034663dbcec85U, 0xbd29c997be0412e0U,
  0x3ddbab6c3a13915bU, 0x3aa6783fbd4121eaU, 0xbd89996b3e14e0efU, 0xbce88df33db27b30U,
  0x3e138b933d1d236bU, 0xbcd21df43d8bd512U, 0x3d70f5fdbcc7beedU, 0x3c9ac66b3d943cb6U,
  0xbd34934abbbddcb0U, 0xbe34783bbdc2e507U, 0xbe28ff1e3c76e268U, 0xbd567ecc3d8907a5U,
  0x3def9d12bc926047U, 0xbe1264cdbd913dc2U, 0xbdaf77dd3d35fb64U, 0x3d3cd36abcea1441U,
  0xbe2d6cbc3d6bbc84U, 0xbdbc372f3d811f8aU, 0xbc9eaf4f3e0381f4U, 0xbd14770f3e122f36U,
  0xbcfb26df3cb3d767U, 0x3da408d93db87b52U, 0x3c12840fbdb1a5daU, 0x3c7620cdbd5219a4U,
  0xbdf3fc1cbe4de82fU, 0xbd4eebaf3d70d7fdU, 0x3dca7cadbdd24a7bU, 0xbdb12fd53da59695U,
  0xba40fcbb3e73b164U, 0xbd5d2f2bbda8b50cU, 0x3e19eacbbcbee747U, 0xbbcd1992be112cabU,
  0xbcb37280bd936eb0U, 0x3ddefda8bdbb8246U, 0x3e32a155bd3a5f1fU, 0x3dda11d73d8d5a64U,
  0xbdc2855fbe113992U, 0xbd4ec76bbe2f16ffU, 0x3de3840a3e077a53U, 0x3dc6d18dbc9a2fa8U,
  0x3e1ea73ebca60d7bU, 0xbe118f0cbe101c2fU, 0xbbc4892b3b8c73efU, 0xbd4250c73dce9bb1U,
  0x3e40910fbe1eff22U, 0xbd8271533d8bfe9fU, 0x3dde5019bd98cf1eU, 0x3e2926033da58b1eU,
  0x3dd26e89bd80cf20U, 0xbd0742aabdad98a1U, 0xbd22ddf63d8668b9U, 0x3cd717763bb3a197U,
  0x3d97a27ebcd70a64U, 0xbdb812ffbdc2c599U, 0x3dffa6d33d568283U, 0xbd99007c3debc79fU,
  0x3daa3e8ebd0c352eU, 0xbaceccf7bb814bd5U, 0x3da266c63db8f5fcU, 0x3d6753df3e653991U,
  0x3e2333c73e4dfbd8U, 0xbdb93b663d68fcb3U, 0x3d8af1c63d865ecbU, 0xbdbc7a26bd97619dU,
  0x3db9dd2dbc2f78baU, 0x3ccd0b1f3e5ad87cU, 0xbc8959afbdd933d3U, 0x3d4e31713ac182d0U,
  0xbdc7181abb33b9d8U, 0x3da03009be547712U, 0xbd4859603d41781eU, 0x3d86f6c13da4b518U,
  0xbd00cc8b3e5581beU, 0xbe83ce6bbe31025cU, 0x3da03b2a3c5c5514U, 0xbd2b55053d5e28d0U,
  0xbd1cc948bdaa89b0U, 0x3dd6f5573cf3948cU, 0xbb4340e1bdeac713U, 0xbdf9e499bde5b4b7U,
  0x3dfc6b933a5f7764U, 0x39baa88239ebef1bU, 0x3def03ce3e5837fbU, 0xbe4e1ed4be8be2e6U,
  0x3be8d9a5bd5832abU, 0xbe015d8a3d65cea6U, 0xbdd624f43a8a264fU, 0x3dd283b83e3e2a01U,
  0x3dbb8f7cbd63c36fU, 0xbd1cd4903e1d7e1bU, 0xbd9c0666bdb92f5eU, 0x3e175cabbe846772U,
  0xbe1e63723db43883U, 0xbe69a0613e250827U, 0x3d726c2bbd61f7d5U, 0x3e49cb5bbe362e10U,
  0x3e4a9da33e0f85e2U, 0xbd77f327bc557510U, 0x3d0462993e0c49daU, 0x3c85863dbcf31dceU,
  0xba9c6bc3be32a6b3U, 0xbe45e79bbe0c4abbU, 0xbe0960b5bdf078f4U, 0x3d5eb50c3d0c5b01U,
  0xbe0d00ad3dc20994U, 0x3dce8fa6bd28e623U, 0x3e191d71bd984a20U, 0xbe0ca62f3e522281U,
  0xbdcc64b03da75430U, 0x3cc9b05dbe0a7d23U, 0x3c67a64dbe037f3bU, 0x3d4ce4cebdb870b1U,
  0xbe15ed34bda6f615U, 0xbd467990bd3e4892U, 0x3e775d793e019a58U, 0xbdb69c563d1707acU,
  0xbde0d587bcba4107U, 0xbe2c026b3dc12625U, 0xbd86b830be32c16bU, 0xbdb1dbb6bcaefc6aU,
  0x3e23136b3e55cb61U, 0xbe178742be146812U, 0xbd8a485abdf28ef7U, 0x3c52b6d7bdd9963aU,
  0x3d8b88da3da315cbU, 0xbe6d6b703d817a9fU, 0x3d902edcbd1ba7f7U, 0xbca7f23abdda5a06U,
  0x3c1664003e142bebU, 0x3d5101d2bda486a2U, 0x3e226eaa3d216c64U, 0x3d38d8503dbd5713U,
  0xbdc61a8a3dd1612eU, 0xbc19ad0cbe211c39U, 0x3e0352453dc242d6U, 0xbe043475be7f45a1U,
  0xbe7576f03d914cecU, 0xbde7a6b03d453ebbU, 0xbdf93bd5bd7bfeadU, 0xbcc5323f3d904014U,
  0xbe969f18bde31795U, 0x3e5181913dd96ebfU, 0xbc729144bd989927U, 0xbcd8bc813d64e2d5U,
  0x3dc552813e315193U, 0xbe360c2f3e2321d8U, 0x3d92573abe174082U, 0x3e551bab3e5c92b8U,
  0xbe01393a3dd12bc7U, 0xbd7f12e5be3d6e1dU, 0x3babed263e1aa86eU, 0x3da898fc3e3c916dU,
  0xbe155de6bd706c0dU, 0xbb22c360bd8d28deU, 0x3da9ef603d0b4ac4U, 0xbe043302beacf555U,
  0xbd91e4d73e3e479bU, 0x3c579a193d3a6e57U, 0xbe1a2d51bcf82db5U, 0xbcc05811bdefd565U,
  0xbd000f32be0365a2U, 0xbdac1fce3e6b528fU, 0x3e459d8f3e30543bU, 0x3d817dabbe17efe5U,
  0xbe268b0b3dc75ebdU, 0x3e00f1b13d565875U, 0x3da2cb313e29ba09U, 0x3df0ffc7bc4cc144U,
  0x3d0603e83e2eb82eU, 0x3ca97c60be2d7becU, 0x3cfbc58c3dff5c7dU, 0xbd100eb4be89d8c7U,
  0xbdba9cf8bd73cb42U, 0x3cfdfbc1bdf617cbU, 0x3d0d26e8be2e38f2U, 0x3e0ec8273d273c1fU,
  0xbe434fabbca3e0eeU, 0x3e4d9d343dfc8161U, 0x3ce0d15e3dd44988U, 0x3e0e7f423dbd55b3U,
  0xbd8a03573d32cb08U, 0xbc9071b53bc1daf0U, 0xbd88fbd83ded9f48U, 0xbc1991e6bbe61590U,
  0x3d49026dbdc835a7U, 0x3d4c57cd3aa5861fU, 0x3ac555063c832143U, 0x3d74e920be2de8dcU,
  0x3d79ae82be259131U, 0xbd7e38253dd4adf9U, 0x3d9e040f3e1a2a86U, 0x3d6637aabe5300d5U,
  0xbcb0d8bd3e0236deU, 0x3c1128ffbd85e676U, 0x3e21bb35bd85fd5bU, 0xbd6cbe1e3bc5ab67U,
  0x3d336d4e3e091901U, 0x3c0c76273d64dff8U, 0x3cb24b2bbcf89500U, 0xbe3430493e43074aU,
  0xbd8bf9673e20ddf4U, 0xbdc511fe3bdaa224U, 0x3e16309fbcbc0b85U, 0xbcaa23a73e07db1dU,
  0xbc5454af3daaa0baU, 0x3d846ebcbdb8edacU, 0x3d9f6aeebe0394d7U, 0x3df9854bbdf80781U,
  0xbe56be833e029fe5U, 0x3e023b2e3b0d10aeU, 0x3e4c2fa53d2ff587U, 0x3de55842bcbef6f4U,
  0x3d7fe78a3d6333ecU, 0x3d91ee40bd8ffc3eU, 0x3d921d53bdec7aecU, 0x3e2309b23d090cdfU,
  0x3cd3da82bbd6505cU, 0xbc9ed9e33deb31a8U, 0x3dccab173cc4e4d9U, 0x3e07798bbde41201U,
  0xbd859e2d3d16bb88U, 0xbde211d0bdfbac0cU, 0xbcb2225ebdc8794eU, 0x3d94520cbcd22af0U,
  0xbe87b5ca3d37fd95U, 0x3e6fe1dcbd030633U, 0x3cdb96553c6d270fU, 0x3d8bbc553e4ebdb3U,
  0xbdde76b03d0667c6U, 0xbe2c12e0bcf227afU, 0xbcda8da2bb855d27U, 0x3e0f1218bdf78ac0U,
  0xbe2714fe3e3c276aU, 0xbe69c0c83e0f6454U, 0x3db7af3ebe3d0be0U, 0xbe0fd1783e02909bU,
  0x3d10b83abb15daddU, 0xbd1eaea2be19bc34U, 0xbc46277e3d04d6abU, 0x3e4461113dc8c0d8U,
  0xbe31ab2d3cbee77aU, 0x3d682e103dcfc2c8U, 0x3dc3725ebc0f149bU, 0xbd9cb6ac3dcdca24U,
  0x3b16e7b93b14c310U, 0x3ddb2880bd3c091fU, 0xbe0e5e85be58fe43U, 0x3ca5c483be7a99fcU,
  0x3e031b533d0b4b2aU, 0xbd9cc4823d5c3741U, 0xbcf03ca4be082cedU, 0x3db5147e3da6cbf7U,
  0xbcdd4a073da16448U, 0xbccc0ec2bd4f344bU, 0xbdc85c4ebdca3fd8U, 0xbe00bcb3bda4784fU,
  0xbe0f7f523d018a5fU, 0xbd8f14aa3c55c4b4U, 0x3dfbffecbce9401fU, 0x3e1ae38e3d1dc232U,
  0x3d92f213bd79db4aU, 0x3dd8fc6d3d2a7ffdU, 0xbd44b4c93db0af71U, 0x3e287297bdd42f4cU,
  0x3e0a85183e6f66dfU, 0xbd7168793b87146dU, 0x3e1377c5bd2e8617U, 0xbdb804f4bd1ca9ebU,
  0x3d50b53bbd7a9e43U, 0x3c8c2228bda37231U, 0xbb4970f03c1aa3fbU, 0xbe1d9edcbdf170daU,
  0x3d129b393df8699fU, 0x3cacdbac3df03743U, 0xbc9b30b53d7577b3U, 0x3e35815c3e17d1cfU,
  0xbe005da43d95d0d3U, 0x3db9c5e1bdf1654dU, 0x3e38d66b3dfbaf45U, 0x3df70c81bdd07c26U,
  0xbcbfcc6fbd9747b7U, 0x3d407b873d60bdafU, 0xbd6b1b71bd8671e2U, 0x38859c3e3d48ae6dU,
  0xbdcae509bde1ee81U, 0x3ac2ba90bd5af56bU, 0x3cf4b53e3d53145dU, 0x3b972f8cbb99a613U,
  0xbce4f653b9d40cecU, 0x3e373eaf3cf4cbc9U, 0xbcc30be93e2b615bU, 0x3d2582013e34ef4bU,
  0x3e265cbfbddd2e9dU, 0xbe0298acbd6212dcU, 0x3d0021ae3df1ee80U, 0xbe0df07c3dca67a2U,
  0x3e01359abdd1d79cU, 0xbddf72fdbcd275afU, 0x3e0c79c13e95a764U, 0x3e3e14b93dc7ebe5U,
  0x3cddcfe6be3f27a6U, 0x3e4ebb873d6c2ea7U, 0x3e6eb7023d79a840U, 0xbe82f7b43e170a94U,
  0xbd10140fbe689f01U, 0x3e7030cbbd0e3193U, 0xbe0348f03e04a2a8U, 0x3e749a0cbe96a611U,
  0x3e00f3973daa1c2fU, 0xbdc2a1283cff0928U, 0xbe0f14153d81f82cU, 0xbd46fd403ea59951U,
  0xbc8c0da7bd23a426U, 0xbd3da2d73d947063U, 0xbe36c4993e059339U, 0x3da2034abc8a8d9aU,
  0xbe0bfa76be396f7bU, 0xbcadba583dd79c8dU, 0xbe70bf563e22d14dU, 0x3d98cfc33d2cee34U,
  0x3d4cc49f3e577e91U, 0xbe3d242c3e2e6417U, 0xbdb9bbbd3e5fd1a2U, 0xbea2c3cb3ddfdb93U,
  0xbb7e3063be86e160U, 0xbe35497c3dd957b8U, 0xbde24c35be447765U, 0x3ec356f73e05baa3U,
  0x3beb46e63ea8655cU, 0x3e2be2773e6a9f58U, 0x3eaa1404bdf18406U, 0x3e44a9103e703902U,
  0xbddad1583e59f823U, 0x3e607770bd0da56cU, 0x3dde41073e54664aU, 0xbd19791a3e1a22feU,
  0xbe8abd9f3d7784b7U, 0x3e6a31e33e50fb56U, 0xbd83c2cb3e08b350U, 0xbe19ebbbbe581e32U,
  0xbe8bb139be4a9f52U, 0xbddd81bc3e76b4b2U, 0xbec14aefbdcf7ee6U, 0x3d93f37b3e27e41eU,
  0x3e82dfd93e446d37U, 0x3e7038b83ea65b0aU, 0x3e2d0e393e4a2c83U, 0x3e6b4c7bbeeb94aeU,
  0xbd9b5360bd8fe6c9U, 0xbd0b55c13e939fbfU, 0xbe9f20803e48d082U, 0xbe1d09303d8c2ef1U,
  0xbe7446ebbdb24258U, 0x3da2a4babe531541U, 0x3cb0dbbe3e282c51U, 0xbe85eaae3d638602U,
  0x3c8fdb4d3e454fbeU, 0xbe867d2f3e9857d1U, 0x3d61d741be3d4eafU, 0xbdc674eebda163d3U,
  0xbe542e563e416af9U, 0xbe09f758b919174cU, 0xbe8aa0b7be44d6dfU, 0x3d86eb463e606e8aU,
  0x3ce62f653c634d7dU, 0xbdc029d0bdb06e74U, 0xbd9a4b463e849ea1U, 0xbb99a19ebdd1dbd8U,
  0xbcdc82ef3eabc769U, 0xbe1f41acbde67489U, 0x3bf831f6beade22eU, 0x3c10b1373e7bd1aeU,
  0x3d206667bcb08d7cU, 0x3e0e1b22bc2f31bcU, 0xbd06506cbdc37b45U, 0x3da9006dbbe53357U,
  0xbc26c5323d98e356U, 0xbdec39b23d94752eU, 0x3e8a96fc3de306cfU, 0xbe53a9f73df8d9d4U,
  0xbccc7d6c3e67b6e4U, 0xbe7a9502be2e97efU, 0x3e080b54bdef2e2bU, 0xbdbeacba3e2250dcU,
  0x3d47349fbe246b62U, 0x3e66ff523dd3264dU, 0xbdb821bebd3489adU, 0x3d485a5abe0dc9c5U,
  0x3e14e2a23c77b106U, 0x3d891808be17acbaU, 0xbe0276ca3ea4069aU, 0x3c49637f3e28fa02U,
  0xbdd18ddd3d25cb53U, 0x3dc8da873d99aa56U, 0x3d9084e5bd3b8143U, 0xbd6575f43d9aa363U,
  0x3d1ac43d3bca1641U, 0x3d941e663d1eb426U, 0xba267e56bcf7ec32U, 0xbdecf796bdbf8252U,
  0xbd52716dbdada717U, 0x3d50aae63c841366U, 0x3e2616ecbd545730U, 0x3da0bb7b3d383637U,
  0x3c90dbabbdfd1a17U, 0xbe3ad954bde104a0U, 0x3dcae0253ce36141U, 0x3e0fc91f3bfe8949U,
  0xbd4990cb3d213f7bU, 0x3dc35009bd588bfeU, 0x3cca0c053da178a3U, 0xbdf8b133be5bbd25U,
  0x3e04aa793e3b5c16U, 0x3d3a807a3d2d9fa1U, 0x3e3d9f1d3e1fec8fU, 0xbd902f23bdf59f5bU,
  0xbd1d7386bc99318aU, 0x3bac76f63e50d1beU, 0x3aa0af813cd1aaf2U, 0xbcb5f885be8c69c3U,
  0xbe842c0e3ce4b4c6U, 0x3d4aa4febd90fc2aU, 0x3de6da5a3e553973U, 0xbe3a67793dfb5630U,
  0x3cc18758be7e41f6U, 0x3d43fbb6be3091aaU, 0xbe8226f2bd23aeddU, 0xbe117e123d801ef7U,
  0x3d94f8ffbd9b1fc6U, 0xbd20f6f53e1fe05aU, 0xbd0c2ad9be1a3ea9U, 0x3dd5db2f3c8e240bU,
  0x3d5d42543d4b08d2U, 0xbd5f7b0ebe43d436U, 0xbd8192683dacc523U, 0xbe432d1d3e04abe6U,
  0x3e07be193db1dd0aU, 0x3ae769d63bfe6166U, 0x3e2b7b1bbd040fc4U, 0xbd85d0f23e23ae19U,
  0xbe8989333e40e853U, 0xbe000388bdaa4e28U, 0xbd1f2d5fbdb909edU, 0xbcfc01b93ccfe832U,
  0xbd8ff40d3da1e990U, 0x3c76512c3dc7253fU, 0x3e8ec56bbdf39096U, 0xbc12b943be02e672U,
  0x3cfc48e53dc424c8U, 0x3e53b3833e106240U, 0xbdca719ebd6be783U, 0x3d236b66be70a9b3U,
  0xbe05ef653dab100bU, 0x3d2580a83c9c000bU, 0x3dce3d00bda4f246U, 0xbe3cea67bd9742d6U,
  0xbe01ef3b3b84a076U, 0xbd34d07cbd34efecU, 0xbe322e943e4328adU, 0x3d6f513b3e502f31U,
  0xbe4e361cbe3621f7U, 0xbca65c033cdfc046U, 0x3d421a023db4014fU, 0x3b2fee473deb7cb0U,
  0x3dc0fe003d88ab45U, 0x3d45363c3dd5c171U, 0xbe85e1f5be947decU, 0x3e141dd8be18ab5cU,
  0x3e0ad42fbde22aeaU, 0xbd3bb7c1bcc71f0cU, 0x3de5dfc13c94a340U, 0xbb592eeabd389bf5U,
  0x3ca6416fbdc661fdU, 0xbe049320bdd04799U, 0x3dec3dda3c5dd3a7U, 0x3df8f5e7be0894c6U,
  0xbd68d76dbdcf6a46U, 0x3c00da09bb62b1a6U, 0x3dd63ec23e399edbU, 0x3df1f698bd8703d2U,
  0xbe06cc95bc95400eU, 0xbc85716b3c91ee91U, 0xbd8eb124bd4aa313U, 0x3da76a29bd982816U,
  0xbe38cccabb83d121U, 0xbddaa3ed3df1e7f4U, 0x3e94bb483d0ab73cU, 0xbda564ef3e506379U,
  0xbc9b0b44bd39637cU, 0x3c64f7babe398dbfU, 0xbceee71abdc4127dU, 0xbc77ddc6bd96f883U,
  0xbd280cf5bde7807aU, 0xbe099eb5be58e777U, 0x3d012078be137258U, 0xbe0006683a81aaf6U,
  0x3da148593cd06ad3U, 0x3d63a259bdb81e91U, 0x3b5c3e4f3d18e7beU, 0x3d47e2a73e6fdecdU,
  0x3d2a6c363d9173fdU, 0xbd335275bd01f44fU, 0xbd861256bd28d9b7U, 0x3dd77c7c3d6c408fU,
  0x3c6e99593d6779cdU, 0xbd6e73e7bda6a1a1U, 0x3ce4f905bda58079U, 0x3da575c7bd94bb95U,
  0x3a5e7a4fbd6f6ce6U, 0x3df5c24b3d5330d1U, 0x3db59d8cbe84482aU, 0xbdbd7af33df32032U,
  0x3dbe65c2bdd4b914U, 0x3e53bf733dae00e9U, 0x3b9feebd3e0aa798U, 0x3da2c9f93e15571aU,
  0x3d0383cf3d1fbd73U, 0xbd9d347fbc90e0cfU, 0x3cc4b1c0bd2dcb95U, 0x3e01336bbdcffc27U,
  0xbe5a06c63d3f19c2U, 0xbda466b5be0681bbU, 0xbe191fac3e13e0edU, 0xbe4a4be9bd443577U,
  0x3d3aa30abd8b0366U, 0xbcca1c2f3d7dbab4U, 0x3e10a1a7bda0bba6U, 0xbdc57c10bd50d15fU,
  0x3d7632ce3e22f773U, 0xbdea9d1c3c7759ceU, 0xbdb5eaf3bd76fc84U, 0xbc7ad6533e25689fU,
  0x3cb41cf73d695b2eU, 0xbde4f06e3d8e389dU, 0x3c12d2c3bcab5aeeU, 0x3e67b569bd138be0U,
  0x3dc4d3f0be1a19faU, 0xbd035e3b3e03d39dU, 0x3d2bf6393df6004dU, 0xbe45b5b83c49d43eU,
  0x3d548db83db76456U, 0x3d8388d73d3727f5U, 0xbe4881fd3d8d2f52U, 0xbcb183093dd0d7eaU,
  0xbe12ee64be0ad995U, 0xbda16b393dbf4017U, 0xbde07eac3c531823U, 0x3e2b206bbbd63f34U,
  0xbde9f9bc3d1898faU, 0xbda1f907bceecea0U, 0x3d7ebe0f3dcb06beU, 0xbdbb3ec7bdaeb8baU,
  0x3d56b9b3be4df2e5U, 0xbde1c6673c9ceb18U, 0x3ca3248f3cb4ac4dU, 0x3d1b1abe3e469fd5U,
  0x3e685fb5bdd57910U, 0xbe2c21e63e2e6f55U, 0xbe3a69ebbdc3e440U, 0xbe074d53be3d9842U,
  0xbdd0d69e3c5cfaedU, 0xbe07762b3dd8d6d8U, 0x3cf5c78ebcf8fde5U, 0xbdae9cc5bc53bde4U,
  0x3d27459e3c94b82cU, 0x3d3b17a6be0ba3faU, 0x3db28fca3c601e57U, 0x3e05e510be499242U,
  0xbe5b6afd3df98932U, 0xbda776623e3315cbU, 0xbc95cbd83ded8782U, 0xbe52009d3e2c5f92U,
  0xbdb7be60bd0f42a5U, 0x3e0dc446bd206825U, 0x3e344202be425b72U, 0x3d903ab63d1b68faU,
  0x3da785bc3ddd9e71U, 0x3e23a4aabdc4837bU, 0xbd2de50cbbb5b377U, 0xbde9fdd0bdecec51U,
  0x3d00a8193d4a3851U, 0xbe0e9e7b3db4ba2dU, 0xbde9645ebd9db0c7U, 0xbd5980423e679bedU,
  0xbd525895bdc3a2daU, 0xbdbdc012be37f187U, 0xbccaf2e73d36aef7U, 0xbe72847f3da36c4bU,
  0xbdc6ffc4bdb9c38aU, 0xbd846cb73e01a882U, 0xbe25b312be3fc881U, 0xbe014d81bdfebf84U,
  0x3d32cba73dbedca5U, 0xbd87a121bd038f83U, 0x3e9946c03be8a628U, 0xbddd61b43d839da3U,
  0x3dbecaa7bd0431c5U, 0xbe04085d3c787924U, 0xbe8469893dfa4742U, 0xbbca57143c238737U,
  0x3d124c1e3cf2fc83U, 0xbc122981be184ea0U, 0xbd5ca64abda4f50dU, 0xbe0aece2bd2f5282U,
  0x3db7f0be3e0e798bU, 0xbe0a54dabc000d13U, 0xbb7a6f313c0a384bU, 0xbdb71e283ba24515U,
  0x3cd70a873d8b7577U, 0x3d7268353e7fac89U, 0x3d325052bd984922U, 0x3cc1bde2be052a0fU,
  0xbe51c717bdef0a88U, 0x3dfc5107bd1c8ed8U, 0xbe031b4a3db3c22cU, 0x3d1e64dd3d2869dbU,
  0x3e26efac3d30138aU, 0x3d253844b94ca192U, 0xbe31e23fbbb85855U, 0xbd1e6c3b3da23fbfU,
  0x3d0e4e98bd8cbd52U, 0xbe0bc504be1dc7deU, 0xbdda4226bd10a6b6U, 0x3c56646dbe46fd7eU,
  0x3dbf439bbbe9197bU, 0x3bc60a303e0d89b1U, 0x3e2e34b63d383e34U, 0xbe3a19ab3db460e0U,
  0x3963fbe2bdff3410U, 0xbdeeb150bdc30f13U, 0xbc4fd415bc0193beU, 0xbe04eaed3dc20abaU,
  0xbd51370ebd179d16U, 0x3db8dc253d408cf6U, 0xbc889caebe93caa1U, 0xbd2bfc56bd519b85U,
  0xbccafa703dbb0cefU, 0xbdfdf5283d44d0cbU, 0x3dae6a47bebf76f7U, 0x3dabe60e3c81014eU,
  0xbc231a853d56e785U, 0x3dda46e93e10523dU, 0xbe32b4a2bdca43b0U, 0x3dc730d6bd8f874aU,
  0xbdbfcaab3c8b1c6dU, 0x3e81955dbe9d64b1U, 0xbd6695c5bc3d3e12U, 0x3cf7b520bd9884a0U,
  0xbd334bc43de2dc17U, 0xbe30bc9c3e12b05dU, 0x3dd3452c3ccab387U, 0x3e20d2f1bcbc51deU,
  0xbd8848d63d493f13U, 0x3dfff3103d4e9faaU, 0xbd3faa65bdbf9454U, 0x3dfd32873d49b554U,
  0xbb9054393dc613f9U, 0x3ddf9bcbbd96402dU, 0x3e2a4a733dd681bcU, 0x3e0a3d383e042214U,
  0x3e056258bd2b4904U, 0x3dff81a1bc6e438fU, 0x3d95e92fbdcf2ca0U, 0x3e228f61be3ed6a0U,
  0x3cd7d0ef3c0d62c6U, 0x3e15d329bdd774f9U, 0x3c0a25f9bc809ab1U, 0x3e05f6dc3e1544a0U,
  0xbc6b09113aafd1afU, 0x3dd4f52e3e0a8ab8U, 0x3dac4538bdf82db5U, 0xbe6519b63e0bcd60U,
  0x3c2bc0c0bdf3ec22U, 0x3ea8990b3c96c143U, 0x3d31bbb43d36889dU, 0xbac0c1dcbb603ec7U,
  0xbda9f0f23d827932U, 0x3c1941d33dd27db3U, 0x3e3794ab3ddb52d2U, 0xbb728f5fbdecd042U,
  0xbdbeb6a83e462a5aU, 0xbdf5f2e1bda1c59eU, 0xbe0dc1ccbde930eaU, 0xbd9d01273e8fe1ddU,
  0x3def4e6b3def338fU, 0xbd81bc683d58f3f0U, 0x3d1230ad3d188763U, 0x3e110cfabc09e6c2U,
  0xbd589a703cfcb423U, 0x3d8e739f3d1f5311U, 0x3e19c8263ca7bf47U, 0x3dcb4a453d73f531U,
  0xbdf448adbd580917U, 0xbd809670be1175c5U, 0x3be4de31bc867406U, 0x3d07a1db3dbee570U,
  0xbd51e2cebde3f129U, 0xbe3164903dea4d84U, 0x3d692ac0bd8da6efU, 0x3dffa7d3bb2b7063U,
  0xbdf5148b3df882aeU, 0xbe16a0cdbddb3888U, 0x3dbe0ae5bba1c6f8U, 0x3dac515dbe6988f2U,
  0xbdffaa873da67526U, 0x3c9b09f73d315f0fU, 0x3da4aa0cbbdc6f44U, 0x3d4208b03c04616eU,
  0x3d131d7bbdbd6802U, 0xbe257defbdbea1c1U, 0x3d2de70bbd4ea93aU, 0x3dbdec6a3e45a057U,
  0xbdbe2131ba7f9747U, 0xbd670d323bf8cb12U, 0xbb40fa90bd03d0c2U, 0x3d80ed323e81e3ddU,
  0x3bd265b2bd20199cU, 0x3cfdd96ebdd6a076U, 0x3d8dabc33d37fe99U, 0xbe1a2e2dbc9e8defU,
  0x3e1e55ea3d90fdb2U, 0x3d1a2e7d3d936dc7U, 0x3d595a553d00bc44U, 0xbd58d8263dfaf1dfU,
  0xbd8f6be73d017fbaU, 0xbd28f86abe4656ddU, 0xbccb5bc23ae03037U, 0x3e670889be00be56U,
  0x3ca19a703da5f849U, 0x3d7f7bfb3d1ef240U, 0x3e468836bda2ec42U, 0xbcde48d23dbe0744U,
  0x3e08d2c3bd259d2bU, 0xbcca955c3ca3308bU, 0x3e344658bbc67d02U, 0xbe0849e93d01bbdeU,
  0xbe01cec9bd3ff28bU, 0x3e3150ea3c92791bU, 0xbe2f064cbc8fcd31U, 0xbe2197a4bdf6fdfeU,
  0xbbafedc03c83df30U, 0x3e8f8285bd4bc620U, 0x3dc0caa03c2e3e1cU, 0x3cb60b223ded2a94U,
  0x3e029e3c3d8af7ecU, 0xbe0193163d8103f6U, 0x3ce4a173bc1af62bU, 0x3e49d4db3dbbe342U,
  0xbd15bb9fbdffb9d9U, 0x3e1fd842bdf46e36U, 0x3cef3b45bcd33c65U, 0x3d6bf1133d42f74bU,
  0xbe3b0a2bbd75d480U, 0x3d79178e3df0004dU, 0xbd34de4d3e8de260U, 0x3dd48cfcba4d1d62U,
  0x3dbad8cdbddbcf68U, 0xbb90ff7abb616ca3U, 0x3ce89156bd590884U, 0xbddcac6b3e716ba4U,
  0x3dcbdf883dcc9d00U, 0xbd85d9f5be019382U, 0x3ca0275dbdacd2f0U, 0x3e85fd53be952e5eU,
  0x3cc413f0bdec39f7U, 0xbbbc849b3da81acbU, 0xbd1177913e236fcaU, 0x3d2fa7cebe16eb50U,
  0xbde2e3163dc29bafU, 0xbce9006bbe062b09U, 0x3dbb2793bcdd0293U, 0x3d9639f93ce483faU,
  0x3d3b037abd0ab1f6U, 0x3cecf8b2bccd65e9U, 0x3d34a4f1be0b9fa3U, 0x3c4b7b3dbc99debaU,
  0xbc1c4df7be16442fU, 0xbd35e5c6bd84e19eU, 0xbe46cfeb3dbc2ec6U, 0xbdd4677f3e02e03bU,
  0x3dbcab773db0461cU, 0xbd88b78ebd71e04eU, 0x3d150f07bd0a9ab2U, 0x3d0fc06fbd24aac7U,
  0xba1ef0e4bd093848U, 0x3d857a7cbdf0bf73U, 0xbdaf72293c2dc8f9U, 0xbe186582be296d0fU,
  0xbdf4aa42bc9a9beeU, 0xbd6389d9bdf28634U, 0xbe70c107bd767ea5U, 0x3d2996743dc9ad20U,
  0x3c9ee3c0bc3fa076U, 0x3d1468843dda6bc7U, 0xbd898c8ebb827a7fU, 0xbcaf0080bd38f94cU,
  0x3ddbcc003de5b51cU, 0x3cd99fb7bdfc40feU, 0xbe2bc340bd97c0abU, 0x3deaacb7bceabe85U,
  0x3d9669963dc58321U, 0xbcabf8e4bd052cc4U, 0x3e59ca68bd951a3cU, 0xbdb7f9f0bdd22bfdU,
  0x3cc022483df2d09bU, 0xbcfb2a8ebe344582U, 0xbe709cc7bd46a722U, 0x3e73c941be1b8e18U,
  0x3e1202113df2a3b9U, 0xbd307289be72c5b6U, 0x3e5a3a21bcbf168eU, 0x3d9ef5d73d212bebU,
  0xbcb51579be8ed7efU, 0x3cdb6cb73d80a769U, 0xbe5c3bf5be6c79dcU, 0xbe9394b6bc07d5cfU,
  0x3d920880bd2f199aU, 0x3e23a3b13d5f9c91U, 0x3ce68c2b3d89fd24U, 0x3da90a1abe4ec6bcU,
  0x3ccac2bf3b56b06eU, 0x3d53c3953c9317f9U, 0xbe0112073e027b27U, 0xbe364d2abd22f7b5U,
  0xbe11215d3d695f79U, 0xbd8124edbdfd2771U, 0xbdd9bcc1be1019ffU, 0xbc4fb1003d56b08bU,
  0xbdda093d3d3ea8b9U, 0xbd4f6d413e4a02eeU, 0x3e3c235bbd1c4cbeU, 0xbd1d9337becf9f71U,
  0x3e4f1e053db5c2acU, 0xbe4773bfbdfed675U, 0x3ceb73173d8d3bc2U, 0xbd91261abd972ae8U,
  0xbabb8c3bbe0276beU, 0xbd875d383cc97e84U, 0xbd11974dbe4fb18cU, 0x3da6c860bcaef467U,
  0x3dc39955be0f4afdU, 0xbd9ef15abe2680fdU, 0xbc0969cdbd2386b5U, 0x3df5abed3e9ad744U,
  0xbd99309dbe26f9f9U, 0xbbb4a79cbda92328U, 0xbe6dd7083dd0b01cU, 0xbd64f691be44a79aU,
  0xbd9e9d62bc95084bU, 0xbc848a9d3e20feb0U, 0x3d69bc4d3da3e82fU, 0xbc5565203c2278c4U,
  0x3d5af6973d0f2ee5U, 0x3d2b4ca93de93f03U, 0xbe20abda3baf6247U, 0xbdfaeedd3d3f82beU,
  0x3d722dd6bd5958b2U, 0xbdeb15d0bcce9a0aU, 0xbbe55202bd9e29cbU, 0x3df68b94be38b572U,
  0x3d4e84b43e460834U, 0xbd942ac8bd942c88U, 0xbdda2c9abe5cf877U, 0x3d41363e39a88a01U,
  0x3d90490f3cbe6425U, 0x3e53c7a8bd889d6aU, 0xbc8668d5bd856761U, 0xbb8c6d8dbe4b5f7aU,
  0xbd8129ffbc627d5eU, 0x3d98f8f1bdcfeebdU, 0xbe4dd23cbc316c2eU, 0x3e042b34bc844dbeU,
  0x3dcb41b9be1d5885U, 0x3dd0a348bda6d7cdU, 0xbd7771d5bdc3c247U, 0xbe59ab153c3d2f9aU,
  0xbc2d3f76be45ed73U, 0xbdfc648dbdc9a5b4U, 0xbdac475fbd1db425U, 0x3d1c9f52be10a8c7U,
  0x3d6cf7323dae2691U, 0xbbfb1b97be27d164U, 0xbcc638fcbcb6a8feU, 0xbdd14dccbd42dfd3U,
  0xbddb3e4fbdce779fU, 0xbdede7513c90c251U, 0x3daacf41bd6f1560U, 0x3e2f6265bd838a37U,
  0x3ce399203e1b9a44U, 0xbe19ef9ebe303e9aU, 0x3e47f6523e7457a0U, 0xbe5dbc613e5a1a3dU,
  0xbd91b9a6bd0e6744U, 0xbcc10d183e01a1deU, 0x3d9c36cebdf2e7f4U, 0xbe1a2e7dbc3234f5U,
  0x3b64c6443e1459e1U, 0x3d5fb9383dbe54e2U, 0x3dced9233d28607bU, 0x3c4fa6a3be7bb07dU,
  0x3d79fddfbdb2cda7U, 0x3e0710d6be6719a8U, 0xbe43aabfbce113aaU, 0xbc8dfd15be743da6U,
  0xbd6b6ea9bda0c77cU, 0xbd13b92dbe6535d5U, 0xba73e222bccee29bU, 0xbd0ab1cf3df1d758U,
  0x3d7c8541be301bb2U, 0xbdd12218ba7b4050U, 0x3e4c1e8d3d53325dU, 0x3d5b9b06bd9d6815U,
  0x3eab2fdfbdfbfcd8U, 0x3d626fcd3d58f9acU, 0xbdbaa3733e50b608U, 0x3d11e34bbe3ec0dcU,
  0x3dfaa5f7bdc90707U, 0x3e152f333c4fd0aeU, 0x3e74642e3e3d6c47U, 0xbdb263fa3c44a38dU,
  0xbd3484f8beb31610U, 0xbca5da21bdd70abcU, 0x3dbe3a973e6d55caU, 0x3e0507babd99e882U,
  0x3d16d2f53d2af66cU, 0xbca39b4f3e0e2f61U, 0xbc0e61da3e265b70U, 0x3e5cc67b3da40819U,
  0x3d63f1d53c34cea3U, 0xbd7442df3e099120U, 0x3d24fd603c7717c9U, 0xbde62ec03d2bf633U,
  0x3cf6a26c3c6e9faaU, 0xbdae8deb3dc25569U, 0x3d77b5c2be6c78e3U, 0xbc7662033d9aeb17U,
  0xbd28e1a63dcceff6U, 0xbe4ba115bbc31698U, 0x3e12b165bdfd3d74U, 0x3e0d6cd6bd3f25a5U,
  0x3ce2fbd2bde4c994U, 0x3e4494a63e0893daU, 0xbd1d457bbeaf95e7U, 0x3e17ef9dbe0ed0d8U,
  0xbe3f9c29be76daa1U, 0x3e914c563defab0bU, 0x3d4ce1683e66b5c9U, 0x3d7e240bbe42342bU,
  0x3e33f3ae3de97090U, 0xbe904f423e6b8246U, 0xbd367710bd276c4bU, 0xbe47ec71bcc1ad0bU,
  0xbe2012d23de1ddc2U, 0xbc570481bd657afcU, 0xbe7adcde3bd8cbe3U, 0x3dcad062bdf68e25U,
  0xbe2c6114bceac729U, 0xbe0128a1bd03d1beU, 0x3d7da31ebe1cb9edU, 0x3e071765bec7f8b3U,
  0xbcffd6813dbe7f6dU, 0xbcf8d2f13de949beU, 0x3e26a75c3d8fde2cU, 0xbe718c25bdaea3bfU,
  0x3ded7470be438135U, 0xbe006b75be7736afU, 0xbe83cdc3bdd6717fU, 0x3e068ee63c9c944cU,
  0x3e135c19bc0968c3U, 0xbcd80f8abdd3213fU, 0x3de748983e18e825U, 0x3e026d03bddb9b63U,
  0x3e0b02c9bdc7c737U, 0xbb44075abdf32ac5U, 0x3df65de2be456dcaU, 0xbe7680b43e0ccef4U,
  0x3e39f183bdc0db0bU, 0x3e81f9d93c6224edU, 0xbe5ce4e43e3c4327U, 0x3ec103a63babfe94U,
  0x3e8a3eb13e4944d9U, 0xbd567c3d3b5117fbU, 0xbdee2c153e137de9U, 0xbe0d0d4b3f06de15U,
  0xbda8442b3d911c07U, 0x3d86f5bdbe644d34U, 0x3e815d443eaf2beaU, 0x3e26b91fbcd5d207U,
  0xbea6bf33bd845d5cU, 0xbdaa89833dc6c321U, 0xbe754c3fbe328731U, 0x3e3639e6be92acc8U,
  0x3e9297393e35febfU, 0xbda55dc73dad148dU, 0xbd47370a3e1a5e60U, 0x3d9010523d2c36beU,
  0x3e49cddebd829684U, 0xbe1a5985be8d5a2dU, 0xbe92825c3cf8020dU, 0x3e8e7f89bcbe811bU,
  0x3cfd9234be134353U, 0xbd5686cf3d41966dU, 0xbd8dacd43cbda9fcU, 0x3d6e37133db8db01U,
  0xbd12a71e3d31237bU, 0xbd48912fbde18a71U, 0x3d12144ebd58213dU, 0x3daa8365bd4a9e3eU,
  0x3e0acc0bbe3ea54dU, 0xbd3a0664be12e510U, 0x3e311bc53e0bc9edU, 0xbd0a7ccbbe2e7f1fU,
  0x3b74ced33d045c88U, 0x3da9b6b93ceada81U, 0x3d11ef623e1e23a3U, 0xbe66a5913d1b7c4cU,
  0x3dbbb7c8be69bc42U, 0xbd1f8d863e1df23cU, 0xbdca7605bd19aeb2U, 0x3d32af1dbc165ed2U,
  0xbbf22c8c3c93e116U, 0x3e08b1babd173490U, 0xbc32039f3e0556f2U, 0xbd80465dbd1f7da1U,
  0x3c3d30c93d7b30bcU, 0xbda07d3fbdcbffa3U, 0xbb659435bd902137U, 0x3d75c52c3deefe85U,
  0xbdd18f87bd6e6b75U, 0x3d9b44acbb0c337eU, 0x3d832e4abdb1cd80U, 0x3da84cb1bd823e62U,
  0xbe774ecbbdc632d0U, 0xbc300b223dd0fc80U, 0xbe2740dbbde2c28cU, 0xbdc4d7433c3c9b8bU,
  0xbd40aa773e1089b8U, 0x3deeb626bd897c3eU, 0xbdfb19673e54336fU, 0xbdfc08a3bdcbd663U,
  0xbde10dbe3e54d370U, 0xbcf5873ebdd1d021U, 0xbe47f19abe636f9aU, 0xbdd40ace3df10a13U,
  0xbd346d4dbe01a253U, 0x3cfd4c82bc5e7a8bU, 0xbd695d18bbbca886U, 0x3eb209fe3da8532cU,
  0x3d9eb97abdb21872U, 0xbca3099a3dc86f8eU, 0xbc3970183e8f6247U, 0xbdaea5203d0925bbU,
  0xbe4a3235bd4254eaU, 0xbd9b3335be01b413U, 0xbe292041bd519731U, 0x3e7685b1bd9f4fd7U,
  0xbd1711a73ddb9f7dU, 0x3d759fb83e371561U, 0x3e4671023dc9e49bU, 0xbe1bb796bdf2fed3U,
  0xbd0ccb3c3e1700c3U, 0x3d0637d1bd36ac3eU, 0xbe7ac72abcdffaebU, 0xbe6a5ebabdc10e22U,
  0xbe1050afbe8ac2edU, 0xbd5f05433ca8e3aeU, 0xbe92b436bef49f44U, 0xbee45d063e2e04a3U,
  0x3ec3af5a3deba7dcU, 0xbe6fdd713d46183dU, 0xbe0d61523d93bab2U, 0x3e5e2a8ebe77332eU,
  0x3e597e163e47586dU, 0xbead939abe2c2e37U, 0x3e2b6e4bbe3b9911U, 0xbeed24a73b822604U,
  0xbeb05517be6ed39fU, 0xbe66b284beb7730bU, 0x3e3b75b4beb105f7U, 0x3e8c56c0be2b8c5aU,
  0xbe69bffe3da8f6adU, 0xbe9c2e02be74c30aU, 0x3eb676dabe45938bU, 0xbe1f20ce3d81cf54U,
  0x3dd12e833f0b174dU, 0xbeba7bb8bd11ea2cU, 0x3e7c6736be97bfa5U, 0xbd5c7bebbd864855U,
  0xbe1ce3a2bcacecd1U, 0x3eb5c30a3e9945a5U, 0x3dcbf46bbead7af7U, 0x3e5f7c73bdb1f5ffU,
  0xbed043f03e33147cU, 0x3e806fe9be942ecdU, 0xbe84850b3ecca69eU, 0xbe942050be87dd93U,
  0xbdb7fbb6bc5e813fU, 0x3d6d9918bbc5402dU, 0x3cbf56af3cb1b702U, 0x3d9cb4b13dc36756U,
  0x3e563227bdea3f0eU, 0x3db4e2773e7cf98dU, 0xbde7ea7b3e5a6a17U, 0xbe732618b86f3d9fU,
  0xbe008aaf3e06331cU, 0x3e0149bdbd885611U, 0xbdd48a39be3f82a1U, 0x3df1d5bc3dcfcd2aU,
  0xbe275ff1bdcbe384U, 0x3cd39317be622e90U, 0x3bd6fa703e4e8ad9U, 0x3ce03951bd07c854U,
  0xbd7a4310bd1fd08bU, 0xbd43ba193e00367fU, 0x3c02e0c23defa05cU, 0x3cf219193d5c50a6U,
  0xbd0f77453cde42e7U, 0xbd4d68ffbdb945bbU, 0xbcc20ad6bd87fe28U, 0x3d093a48be25cb66U,
  0x3d54dd6dbd73e6f4U, 0xbd9aec3d3e682c57U, 0xbb321199bc886fd2U, 0xbdbe5c1bbc1273a3U,
  0xbe2dcd12be4c207dU, 0x3e1c80743e0bdb49U, 0x3d7fbe69be094373U, 0x3d6497713bd5fae5U,
  0xbda0a919bd46b898U, 0xbe5f8568be704c55U, 0xbe13e17e3e126568U, 0x3e6eb83bbe5da666U,
  0x3e143482be45234dU, 0xbe167f1e3dc617f1U, 0x3d296213be66bc1bU, 0x3d40d8b9be0bcf99U,
  0x3da5bcffbe9a42ebU, 0x3e827ff2be36871dU, 0x3dd84d1e3df1b15dU, 0x3e38e6e8bcbfc155U,
  0x3e342c2c3cebd23aU, 0x3e4f7b73bc555e12U, 0x3e464aeebce0f241U, 0x3d5ab4b1bd8eb608U,
  0x3d2f48f5bd555d35U, 0xbe65926ebd947d33U, 0x3cd9b4cc3dededb1U, 0x3d9a2c093d73e77eU,
  0x3d867b67bdb4d515U, 0xbe24af923c678e69U, 0x3d7cbe19be19599aU, 0xbc4ef868be804a5bU,
  0x3e69def63de4f61cU, 0xbb7ba80c3d857563U, 0xbe2be5a53c01ae0cU, 0x3e984001bd267980U,
  0x3d7e58893ca0a0f5U, 0x3e1a5e8b3d8e2421U, 0x3dc2c0ea3db4fafeU, 0xbe164dfdbd9b0ef2U,
  0x3d050b0a3c3e38d5U, 0xbdc18a893d397e4cU, 0xbe480e173db8e3deU, 0xbe64a6083e5a965aU,
  0x3cc568963ce467afU, 0xbe5ee48dbe37e234U, 0xbe750764bd8e4805U, 0xbe111e9abe02443aU,
  0x3e81ab013e64749fU, 0xbe5703c43cadb0e5U, 0x3dcf9d76be2db2c3U, 0xbe7aad423db7d331U,
  0xbe105d7dbda2e517U, 0xbb172823be688d89U, 0xbdf787b0bdd98f50U, 0x3a9d3a80bc8bfeaeU,
  0xbb9b0fe4be234da7U, 0xbe97e26b3da72868U, 0x3dab5d983e29a127U, 0xbe538a4c3de5cf0cU,
  0x3d9186aa3e6e6470U, 0xbe20788dbdc42c57U, 0xbc5ab386bdd098bdU, 0x3dca441abdb7c5f9U,
  0x3e11e9debe2eed31U, 0x3d9461523e448a63U, 0xbdf1b5cf3e00fb58U, 0x3c82e957bd5ffcdeU,
  0xbd1872d3bdef67d9U, 0x3d88e69bbd4061aeU, 0xbe4f496cbbfe717fU, 0xbd426478bda5bc6aU,
  0xbe9e9e9b3e36f0f7U, 0xbd1d5a7dbd02c6e4U, 0x3e284250be12872aU, 0xbe143dbdba445702U,
  0xbe8e611b3cc339d5U, 0x3c85fb5cbe920d80U, 0xbe1288f73cbf1bc5U, 0xbe6b2378bda28e7aU,
  0xbd324e513db6aecbU, 0x3d4597333c0ebae8U, 0x3ddd7beabdee46c9U, 0xbe0f4f5c3d9865caU,
  0xbda4819fbd5bd26cU, 0xbe9dd76e3d921232U, 0xbe4978c4bdf8cdd4U, 0x3e426c87bccb6f2fU,
  0x3e5dafc6bd9b70eeU, 0xbdd605af3d7e79b6U, 0x3ca840873d9dac80U, 0x3d946814be376cdbU,
  0x3c4ae6663e8c4a87U, 0xbe7b8934bcc6c22bU, 0xbaccf4a7be4e6af1U, 0x3e5f552a3d276ff4U,
  0xbdc6f62abcdc0709U, 0x3e899d503ddfacd5U, 0x3e30321f3e5a0221U, 0xbe8767cebd90c110U,
  0xbd8315a5bc9a0d9aU, 0xbd651a18bd907880U, 0xbe842f893d040bf3U, 0xbd72dea4bc7b3a4aU,
  0x3e03691cbc06d5e8U, 0xbb0d404bbdd1ef10U, 0x3c9e99d73e20655dU, 0x3cdf54a1bd1e3872U,
  0x3e5ccb75bd593009U, 0x3da6f9de3e270d62U, 0xbe3df204bd0c34d7U, 0x3dc97d83be264765U,
  0x3e76ef50be13b110U, 0x3e42da47be88f9f2U, 0xbdb07b89bcfa607bU, 0xbced45a6bdb8859fU,
  0x3c2d07be3d88d589U, 0xbd8b67c3bdacbcfeU, 0x3e8c19333e7ae992U, 0xbe178e023d412f6fU,
  0xbe147c72be45799fU, 0x3c23d6223e048b64U, 0xbda618273e14514eU, 0x3e257e833e318808U,
  0xbdbf422fbd9a2ff8U, 0x3e00447abcea2313U, 0xbd9830dc3dc96004U, 0x3c93e6efbb952458U,
  0x3d81ae9ebd4a07afU, 0x3e40bcd4bcd3085cU, 0xbc8688ac3e227f7bU, 0x3d77e3f4bdb0607fU,
  0xbe664e8bbe588afbU, 0xbdffd8403de7a73aU, 0x3cafa6f6be4536aeU, 0x3e5d99b9bc06586eU,
  0x3e0dacadbd37738bU, 0xbe2f89113d8f7fcaU, 0x3dda321e3c893f8cU, 0xbd5f1c1ebd992444U,
  0x3dbbc9c5be2ca134U, 0xbe310f28be132c27U, 0x3d8c2a0cbddb09a1U, 0x3e7858263d891c16U,
  0xbcaed63fbe25c64fU, 0xbd131f7ebe2d53dcU, 0x3e2554003e70f8eaU, 0xbe20abe63dc5f351U,
  0xbd114ef03cf11ea7U, 0x3dd31fa8bd40ec76U, 0x3e850399be498659U, 0xbc863bbf3d81ce12U,
  0x3cd03ea13e2c29e9U, 0xbd671760bd9fc3b7U, 0xbd7307c43db4d44fU, 0xbd1461d9bccc7fe2U,
  0x3df3f6b4bd3f9200U, 0xbd92b1533e3313b4U, 0x3c2e0a753cb9d028U, 0xbc8d0cc3bce596d5U,
  0x3d35cbd43e25354eU, 0x3e1e59d93e1f8297U, 0x3d38f3dbbe0d0232U, 0x3e29f47dbd894362U,
  0x3cd0c128bdfa2c2fU, 0x3db3e8eebdf6bdfaU, 0x3c3075353d77a33eU, 0xbd65a539bdebac05U,
  0x3bdd9f4abd2813c4U, 0xbbc10fe3be2631b0U, 0x3e34039e3d552f83U, 0xbd5002883e85b69bU,
  0xbd3edf263e0ce15aU, 0xbe85b7f7bdf07ec1U, 0x3de1f9d6be7ca28dU, 0x3e02bdd3bda3fa75U,
  0x3c0d57dbbe1bea4cU, 0xbe250147be617867U, 0xbd14ad523e7e8850U, 0xbe3dae92bdc1fd13U,
  0xbdc361bdbd0a7752U, 0xbd544c5bbd0abf4cU, 0x3e2ee4aabcce389eU, 0xbd04d02dbd82824cU,
  0x3d6e8b87bdcb7f7dU, 0xbe5b1546be3538d1U, 0xbd33a7b83bc90eb0U, 0x3d3ef9143e022276U,
  0x3dccb6d83dfed5d6U, 0xbe3f25ab3ca2a27fU, 0xbd984f5c3d358770U, 0x3d86b574be417021U,
  0x3d82c631bdf792c1U, 0xbd33c5243e217faeU, 0x3cfc06cc3ce6a545U, 0x3d8252ef3e1bf175U,
  0x3daa6384be118e78U, 0x3e2004673ca67495U, 0x3d1a33bebcd50b65U, 0xbcfd30103bca4971U,
  0xbdb07362bd8efddcU, 0xbe5cb4efbd6b4831U, 0x3d87d88bbd7511a6U, 0x3dccb49e3db381e5U,
  0xbbe806203d6cae31U, 0xbdf5504bbe147785U, 0x3d7c65e03e09d60fU, 0x3e042184be53ea8eU,
  0x3e65d30a3ce55abdU, 0x3d4c8ef6be1e4f59U, 0x3d5466c7bdb16a53U, 0xbd5b5f443e50d70dU,
  0xbe07dd383e247b5dU, 0xbca8ae573db8737fU, 0xbe0d8807bd66df35U, 0xbcb2b43a3db9b5b7U,
  0xbd8e9a3abe299570U, 0xbdee9fef3d1262e2U, 0xbc8c6679bdd6a594U, 0xbd9981213e353150U,
  0x3ce7b80f3d51b50fU, 0xbe17e778be158b76U, 0x3e25a47a3dc4173aU, 0x3d333651be2d2559U,
  0x3d99e6c0bd92c4b5U, 0x3da69819bd64b255U, 0xbe22a3cd3e15863aU, 0x3d21e411be00394fU,
  0x3d7046f73c2ba654U, 0x3d125bd73da9d11aU, 0xbe290fcbbe1306abU, 0x3e0bdf7b3d49f383U,
  0xbe3dcdd63c98e70fU, 0xbe5ab7613d0c9507U, 0x3e19b2623c854960U, 0x3e8b7dd03d986b47U,
  0x3da1b727bd55dcbeU, 0xbdd5d34fbdca0704U, 0x3d5299f23daec933U, 0xbd56f3a13e81d831U,
  0xbb165e5a3d01a93dU, 0x3d754b54bda096a2U, 0xbd38464abdc5ae24U, 0x3e6248efbdf34f8dU,
  0x3e074de0bdc958d4U, 0xbe2deb80bbb32651U, 0x3dc34f6b3e0a01a4U, 0xbb61dabf3e2bd3a1U,
  0x3e7af893bd430677U, 0xbe485e143e0176ddU, 0xbd5f2a83bd52c873U, 0x3c4583593e34aec3U,
  0xbda686d3bd210e74U, 0x3dd5b4e0be1a8554U, 0xbe6ba07ebc9c747aU, 0x3d4b33983e65bb33U,
  0x3e5bb4113d1a91b2U, 0x3d9b83a43a402819U, 0x3e126fc53d02ee57U, 0xbe7d5ab83d239bb9U,
  0x3dbad9813d1a9b8fU, 0x3e32bfebbde2cb47U, 0xbe8f22c5be206084U, 0x3e0b103cbda09fa7U,
  0xbce191f33dacca2dU, 0xbccefd6dbe501d1aU, 0x3e4e3fad3df40bf1U, 0xbd849fdcbdb4411cU,
  0x3e14c1cebe05c9bdU, 0xbd6ccaa4bd4319c4U, 0xbe310f90be13b465U, 0x3adc2fd5bdbc7152U,
  0x3e06c7acbd23551fU, 0x3c9b7b673e11cee7U, 0x3e0e82e13e66f3c9U, 0xbe45dc73bc6fd26eU,
  0x3e0ab35b3e1a0110U, 0x3e0e7b833e23b970U, 0x3bac128abe046ee6U, 0xbcae11afbdfc265dU,
  0xbd5b44fbbcb63ca8U, 0x3d7b8bbb3bddd297U, 0xbd6db44dbdf64cbfU, 0xbc69ddb3bd87e4faU,
  0x3e39a55dbdd5b522U, 0x3d9fbf14bd97bed9U, 0x3b2c69f33d5f31e6U, 0xbe8af9c2bd8dc916U,
  0x3c0bb9b63dd4c100U, 0x3d82f89c3dab800eU, 0xbd51f6b43cf647dfU, 0x3dae4053baf286fbU,
  0xbd8698b93e1858faU, 0x3c954f6ebd63ff6aU, 0x3e67b273bbc7c991U, 0xbdc16b563ddf2a95U,
  0x3e0b6357beb07b06U, 0xbf0283a8bf2bf8f8U, 0x3e088e3a3d3b9234U, 0x3e28dad4be34d3e5U,
  0x3eae9319bf33ac27U, 0xbedb04b5bd5f4077U, 0xbed624e4be7b31a0U, 0x3b250af1bed4c9d5U,
  0x3e5e638bbea0d897U, 0x3e135ed6bec604c9U, 0x3ec627243e18e989U, 0x3c25b5a6be3085a4U,
  0x3e8aed363efd4075U, 0xbe4469ca3dacb457U, 0x3e4c47df3e8ed23bU, 0xbee075d4bd8671adU,
  0xbf0cb926beda4f6aU, 0xbef75a39bea84e56U, 0xbda192b0bef0b0c7U, 0x3e8272793f33e89cU,
  0xbe0307963e2e33fcU, 0xbde21d16becc5dfeU, 0x3ebea8dcbe3cf5fcU, 0xbc1329e4bf09a959U,
  0x3f19cc553ecbed22U, 0x3d9f37f93eba1900U, 0xbe3283973ec29396U, 0x3e7df0ddbe1eaa4dU,
  0x3e921006be0378b8U, 0x3eaedf64be48b630U, 0xbddfb146bf059abfU, 0x3e66cf333ec993d6U,
  0x3d61e0a33dd5f1d7U, 0xbdba0ca9bdc42b61U, 0x3dbf343ebe8a0961U, 0xbe0a46ecbe8e617bU,
  0xbc78e5f9be1c90d2U, 0xbe4fd663bd246b00U, 0xbdda4228be83b84aU, 0xbdb8dc71bd93adddU,
  0x3d87de753dd2914cU, 0xbc2aa7d1bcbad9d5U, 0x3db53c473ca2715fU, 0xbe54fc7b3d908e6eU,
  0x3d3d69a13e8675c1U, 0xbd5367083e258abeU, 0xbd9558a4bda2ff93U, 0x3dc555f9bd317e7fU,
  0xbdb11fdf3e2f56f6U, 0x3d416b90bdf5bb6eU, 0xbce85bdebe426e03U, 0xbcc9ceefbdbab3b6U,
  0x3e91acbe3e0027c2U, 0xbe65e7c83e578441U, 0x3e0c547ebe176eccU, 0xbe262cbabe4d30faU,
  0xbe67c81b3eb0f9f4U, 0xbdac9c9bbc3de923U, 0xbd5a7af53da02db5U, 0xbd2da9a73e619669U,
  0x3e4e5ca13d8d6763U, 0x3db9b0a4bd2fbe1aU, 0x3cc7d1d23e47fd3aU, 0xbb5454bcbc4c1b54U,
  0xbd53355abd9e548cU, 0xbbb8ef1cbdedc5f4U, 0xbd805b853e28712aU, 0xbe17f5ce3ca2e644U,
  0xbd0413c13c191f77U, 0xbdb84c803db2fb2eU, 0xbd6d681d3d93de4cU, 0xbcaa98a3bc97349fU,
  0x3dda64d53d31902bU, 0xbdbf2d253d72ed5dU, 0x3cfe41f5be2a4012U, 0xbe28d5c53db87c5dU,
  0x3d9df2aabdeafc87U, 0x3da5e874baf0351bU, 0x3d2561f6bb8bc3ebU, 0xbe05f9273d618ae9U,
  0x3c900fd9be5d5820U, 0xbe52c704bc186a98U, 0x3cfc7cc93d8e17c3U, 0x3da5bf713c654894U,
  0x3c88e8283e54ece8U, 0x3e038666bd3f527dU, 0xbdc9a06cbdd4101dU, 0x3e3a3b94bdb05936U,
  0x3b7fcb33bd3aa8a2U, 0x3bacc0373c114958U, 0x3d9450123b20c213U, 0x3d94541cbd33fd87U,
  0x3a0aac9dbe0c9eceU, 0xbd123513bd48ad9aU, 0x3e0b223b3dad5560U, 0x3b108765bc87f99eU,
  0x3cccbb533dae7a89U, 0xbe1398d0bda80541U, 0x3d6f5c873e0e6fe3U, 0x3aaf812abdaf5ec1U,
  0xbd961040bd51b180U, 0x3cb9d098bea98f38U, 0xbe499ee4be011486U, 0x3d86e4533d90f228U,
  0x3b1593f8be4b5207U, 0x3e4a7bacbdc912ecU, 0xbdf22605bb80cc20U, 0xbe029c343e0a9d72U,
  0x3dd657a53db1c5e7U, 0xbe28e6aa3da01c2fU, 0xbd612ca13e14fd9fU, 0xbdee4e353db3a776U,
  0xbe0f0feabdb7b8ceU, 0x3cdfa4a73cdc1fa3U, 0x3de5a997be383a3eU, 0x3d4109103b8fc552U,
  0x3df9fbf83e0e3523U, 0xbe1886b4bc9a1563U, 0x3e9f6a35bdf11e1eU, 0xbe0c42d7bdd49f5bU,
  0x3da885ff3dc05c26U, 0x3e090b3abe0aac12U, 0x3d2f77abbde5de5dU, 0x3da49ffd3d74c726U,
  0xbd9657403d19d79cU, 0xbe21383f3d1baec1U, 0x3c3e8639be2f2e72U, 0xbd210dc93e276221U,
  0xbc2ace60be417623U, 0xbdc38d433d88fbb0U, 0xbd4e4a16be746a1fU, 0xbd7ba2d53e6af9a9U,
  0x3d8d1853bddc1105U, 0xbdd483053e628760U, 0xbdea2581bd02c0e4U, 0x3e86c8f1bdbc3479U,
  0x3e933b763c05732cU, 0xbd2e799cbcfd6ebdU, 0x3d84066abe916699U, 0xbe5188cd3dfeb59eU,
  0xbd4f583ebe8e792bU, 0xbd5cb0debe180081U, 0x3e2c10b7bdf3f7bfU, 0x3decb4e4bc98c623U,
  0xbde8632a3d3690a8U, 0xbde3bfd4be7db908U, 0x3de70287bd63c6caU, 0xbd200bc63dfbeb4eU,
  0x3de75d113c1298fcU, 0xbdb6805d3c418082U, 0x3e7d47813d7da070U, 0x3db65a6c3dc8f00fU,
  0x3e6bae00bcf9a70dU, 0x3e9b80973e687470U, 0x3d99cc13be3aba74U, 0x3d3f56abbe85c431U,
  0xbe83ed0a3dcb2a5cU, 0x3d53b7c3be0ca642U, 0xbd3759e93e1e5518U, 0xbe83c3eebe0d9f99U,
  0xbd60b44f3e3dc076U, 0x3ddc4944bdb64f7aU, 0x3e378eb33dfd8575U, 0x3e710953be1f28c1U,
  0xbe46181d3d714425U, 0x3e2192d6bd9a84b8U, 0x3d28264abd6c5928U, 0xbe9ac564bc12b4a2U,
  0x3d020f3d3d3445ccU, 0x3e070c9e3e3f32e8U, 0x3dc6df6abc9baeadU, 0x3e24106cbdb1e2e8U,
  0xbd2b89703e1d7b1cU, 0xbd5deea1bc6e2fdeU, 0xbcb445f03d9654a6U, 0xbd6e14e73e4e7c96U,
  0x3e6956043c6b228aU, 0xbda3ccc7bd43f105U, 0xbd288e8a3de86c8dU, 0x3e65015dbda784afU,
  0x3ce330373dabd98cU, 0xbbcef7b63e65d64bU, 0xbdea3d383d25a173U, 0x3d7b2706be6d8fb1U,
  0xbe18ab46be1d98dbU, 0xbb1b7673bcc4d203U, 0xbcf6157cbd2da265U, 0x3ce9bd273ca87a27U,
  0xbd49d0553d353a50U, 0x3b8eb73dbca02bd9U, 0x3c97d30bbd252f5fU, 0x3c2cf3d4bca7146aU,
  0xbd5b678dbe8e368aU, 0xbd7d8070be21f2e4U, 0xbe3b763b3e1a71c0U, 0x3d48f4973d6d8cd1U,
  0x3e1f8110bdbc6c56U, 0x3c65acc23de827ebU, 0xbe0f8c4a3de902ccU, 0xbe80f1f0bddfdcc3U,
  0x3e39b7753bfa7661U, 0xbe25541e3d8b6665U, 0xbcbf7af0bd9340fbU, 0x3e38fd5c3dde2104U,
  0xbd6250e8bdf1b0e4U, 0x3d850186be55bec4U, 0x3e026ef2bdcc8c53U, 0x3e5747953e0753c7U,
  0x3dc8a7f5be18c425U, 0x3ad5a929be0b0211U, 0x3e0461493e352725U, 0xbe0d63973cfaaaabU,
  0xbe63ad443dcc2017U, 0x3df486d9be5f5a74U, 0xbda861aa3c528fa3U, 0xbe4d082e3e5457c5U,
  0x3c93e58fbe0c0338U, 0x3e369d4b3e3ac0f1U, 0xbc5312603c101d6bU, 0x3c8c21e5bcf5756bU,
  0xbd1fb8cebe0c20d5U, 0x3e802ad83dc19beeU, 0xbe1754dabddb5be8U, 0xbdb4973d3c4de518U,
  0x3e83e95dbd8309edU, 0xbe448686bd6bdfe9U, 0xbc4fb63ebe3930bdU, 0x3e653471be45f14dU,
  0x3c059ec1bdce0c01U, 0xbe520310bd08548dU, 0xbe489b97bca3f761U, 0xbd8dfc35bdd43b81U,
  0xbb858a213de28dcdU, 0x3e4ddbabbdf70902U, 0x3e791b95bc1469c9U, 0x3ec9c71b3e8c0a03U,
  0xbcab84bbbd922c53U, 0xbd5c11ffbd137e9cU, 0x3c021c1bbe0ec1e1U, 0x3ddb2c1f3dacdba7U,
  0x3ccdfffd3de68683U, 0xbd3fd70abe875f64U, 0x3dd796683a72aeedU, 0x3de6549e3e76d24dU,
  0x3e07b7b23e993fcbU, 0xbe781781be04c0dcU, 0x3dfdc2bfbe3e24cfU, 0x3e2e45973d858a27U,
  0x3e181afebdde514eU, 0x3e2de52cbde03eebU, 0x3def69bdbe13f654U, 0xbb13f8963e3af83bU,
  0x3dc87f343d6d2ec9U, 0x3e9dc520be23b4bdU, 0xbdecf7333ca6675dU, 0xbe11d40dbd7b6ce2U,
  0xbcbd7fbebd6d3ca7U, 0xbd8f9d85be502c90U, 0x3e20548c3dbe1266U, 0xbc2a112dbde16e7cU,
  0x3e4009b2be305668U, 0xbdf093fbbd72cbddU, 0xbdee1b353c0d5195U, 0x3dc35bf7bea11d7cU,
  0xbe452a9bbda9fccbU, 0xbae7b9dabe2408e7U, 0x3dcb7d09bd8f3b9dU, 0x3dd3c1bbbe434474U,
  0x3e78e5403dffe25fU, 0xbc829ab03d03591bU, 0xbd288171bd15c6b0U, 0xbc7f97eb3e22f506U,
  0x3d26f6e7bde8c6dbU, 0xbdb46fc63dfed75fU, 0x3d39bea8bd55ae9cU, 0x3da74e2fbd9e87eeU,
  0x3c9427f23e562e52U, 0xbe16b858be052eb7U, 0xbe384c24be0981d0U, 0xbd588c4abd0cd8a1U,
  0x3dbf8f813dc42d19U, 0x3c6530d1bb1e189dU, 0xbca03785bc86834bU, 0xbd36bd023d7749d1U,
  0xbce3696cbc8b69eeU, 0x3e520135bd7275a1U, 0xbe7549fcbc646d5eU, 0xbd32fc5dbdc2b148U,
  0xbb764310bdd233b4U, 0xbe5411f23cc9bb47U, 0x3d3a0036be0507ccU, 0xbd485dc0bd2a51e2U,
  0xbe46f69c3b845b87U, 0x3c818791bc761e63U, 0x3d975a793db4e8ffU, 0xbd8093d6bd91800fU,
  0x3e1a87323daca88cU, 0xbdcadd66bda3ad39U, 0x3e0777563e319448U, 0x3debbd893d944ab8U,
  0x3d96e5883d287acbU, 0xbd25e82ebd3f35cfU, 0x3c9712d5bd2be748U, 0x3e3230903dac0870U,
  0xbe1b2411bd2c6f5dU, 0xbdef52983e125401U, 0x3d8a39273cc4a01dU, 0x3d54a2eb3de3dfa4U,
  0xbdebba963d932d6dU, 0x3d99ff733e40e65eU, 0xbdf3b266bdec002fU, 0x3e3c2a303c8faad5U,
  0xbe2bc8fe3bcf1d95U, 0x3db154ae3d4dbe76U, 0xbd8d99ea3e51eb4dU, 0xbbcc55b8be13925fU,
  0xbd9e6720bddf28e3U, 0xbe077130bdca608bU, 0x3c989c2f3c9b1ed8U, 0xbd7e0b4e3dd7dd16U,
  0xbdf810d93d83eab3U, 0xbe8bea7cbe162ad4U, 0x3e192c793e09c4d3U, 0xbcc567a83e083cd0U,
  0x3d663d963d89899fU, 0xbd826e2a3d1745b1U, 0xba0f8891bdd7f293U, 0x3cc45e5f3e2c4132U,
  0xbd9667babd7d99f2U, 0x3d1860b93d9cd88cU, 0xbdaceae13e0890f0U, 0x3e358185be8d2402U,
  0xbde7a3883e2ef373U, 0xbe858dfb3d37f98fU, 0x3ccca4863e7301b4U, 0x3dada3533e6095ecU,
  0x3e511262beabc292U, 0x3de593ca3d6e34f8U, 0xbdaa567b3da39d6aU, 0x3eac2aadbe16d767U,
  0xbdd961f8bd6d26afU, 0xbd0fdf423de54138U, 0xbc2d35f73ebe22b8U, 0x3e868338bd5ddb0eU,
  0x3e23afb6bd804c6eU, 0x3e017e883d9b05ceU, 0x3e079cb13dc47c48U, 0xbeaacf35bd03b883U,
  0x3d60bbc1beb79dbdU, 0xbe0d2c31be136f5eU, 0xbe3b7cd9be54ecb0U, 0x3e87f5413e147affU,
  0xbe14161ebe533bf8U, 0xbdca8d9ebdaec9b7U, 0xbe2d48d5bc9422c3U, 0xbe20df053c1bac30U,
  0x3d55650fbd675c6cU, 0xbca61c183e0c9d6aU, 0xbe797e9d3e5ad96fU, 0x3dcb47f9bcbe257aU,
  0x3dbf40bdbdabe2abU, 0x3cc98692be43cac1U, 0x3e2bec71bd943e8dU, 0x3ca357febe39d45cU,
  0x3e376e27bdd202e5U, 0xbd80d466bdebd31bU, 0x3dea5200bcc6a35eU, 0x3bb3982dbd0dc719U,
  0x3c8df32bbe3fa561U, 0xbe1efe373dfb231aU, 0xbdd65ec33b5467e7U, 0xbd8ac41cba659a37U,
  0x3cd27128bd754c08U, 0xbc248ecfbea50fa5U, 0xbd70211c3baf1801U, 0x3d2c3a21bdc527f5U,
  0x3db0e8353da73435U, 0xbe15c1053e5c6279U, 0xbd6266cbbd16eca0U, 0xbe65c9b2bd1c5cb7U,
  0x3d6e13a9bd865e1bU, 0x3e56fa15be4aac9aU, 0xbdaedf553ca9508dU, 0x3c93411f3dc87925U,
  0xbd63bb1bbd2f7c2cU, 0x3cd6ab303dd444c5U, 0x3e3055f0bc3749f7U, 0xbcda4356bdc04336U,
  0xbda0e88bbe3065c5U, 0x3dc9d5173db47e3cU, 0x3d823ed0be8ace2fU, 0xbe5a3958be811d72U,
  0x3d28259ebdefa2beU, 0xbb7c102f3d9bd9a3U, 0x3da635ec3e238923U, 0x3e0e4349bdf0d209U,
  0x3d689738bd3841caU, 0xbd0f3077bdc361c5U, 0xbd88125bbdaca172U, 0xbd872ee33e384e57U,
  0x3db5ab533dc41c7cU, 0x3df99837be72b6c0U, 0x3d55c7e0bbb57ff5U, 0x3ec02bc3bd29e99eU,
  0x3d6cd90f3e6bd196U, 0x3d9ff1403e087114U, 0x3cabd898bd6c6588U, 0x3d3cf112bddc5748U,
  0xbdad948bbafa6935U, 0x3deae8c83d6470a9U, 0xbc682748bb4b3d97U, 0xbdd42c50bb50fc80U,
  0x3cf52624be003f9bU, 0x3d110b1bbd003996U, 0xbcf3bb39bde76a1aU, 0x3e534f56bd39bf79U,
  0x3dee58023cfce313U, 0x3d604a723ba14030U, 0x3c8753113df00e7dU, 0x3d09466bbb02b37dU,
  0x3cc0c5db3d8971e5U, 0x3e2a2e8cbd454b8cU, 0x3ca2f6d03d8b8db2U, 0xbe72188b3d81843dU,
  0xbdb0743cbe74c499U, 0x3e188c073e586d5bU, 0x3e3da2493e4a97d8U, 0x3e241722bbe23611U,
  0x3e4b6c84bd823128U, 0xbda56a40bdb782adU, 0x3da3429f3de2f557U, 0xbd6392cabc910895U,
  0xbd31e4343dc917b4U, 0x3c222f123d36c609U, 0xbe063ae43d44fd70U, 0x3e4f8eb0bde2c639U,
  0x3de2c615be435ceeU, 0x3e143d0dbce17d48U, 0x3d2774ed3db2f13dU, 0xbd6c987bbe877344U,
  0x3da3e91ebda31035U, 0xbe1f496fbe15f201U, 0xbe2debd73d358de7U, 0xbddcfc163d15e55eU,
  0xbd6d91edbdf2eafcU, 0xbd8471e03cd10807U, 0xbd2dc536bdd8b5b3U, 0xbd6e74413d54f73eU,
  0xbd0b053dbe1f8ca7U, 0x3e180724be88966bU, 0x3c067fc9bdaee6b8U, 0xbdc1ad0ebd88f0edU,
  0x3d9bca60be678dd4U, 0xbe59ee183e903187U, 0xbe9c0b9fbe6fc77cU, 0x3e8465cebd89c981U,
  0x3e83abf4be07da0bU, 0xbd94153ebd98e11bU, 0x3e5ceaddbcfec7a2U, 0xbeb5dddfbe02b8a8U,
  0x3c97cc243d7511b5U, 0x3cb90cdebc00c9e7U, 0x3e1bd1f43dfdc361U, 0xbe12347bbdc0f795U,
  0xbeba7295b85c048dU, 0xbe71f52ebe4db8bbU, 0xbd982603be3713cdU, 0xbd1e7185bdb202fdU,
  0x3de8fe203cc493a8U, 0x3e06e469bdf0009bU, 0x3e1dd0b1b9747163U, 0xbe9253bfbe12a8d9U,
  0x3dbc951d3db86dc8U, 0xbd6658443e6a4b6aU, 0xbd1fe228bd58ecbdU, 0x3e1a2363be13c3c5U,
  0xbc93e60b3dadc295U, 0x3b7676cebd916b7eU, 0x3d8aa39d3de0f68dU, 0x3e62946a3d184a3cU,
  0xbdb83bfcbe9ba703U, 0xbdffa466be8409c3U, 0x3e5b80453e9b62abU, 0x3e56c416be4430e7U,
  0xbbb6778fbe9b0961U, 0x3d96d1d7bd63675fU, 0xbd77accabe9ea347U, 0x3cc493c63d86cb23U,
  0xbc70b3cdbeb986ffU, 0x3de389a3be1385f1U, 0x3c07d0923b0715f3U, 0x3e20a759bd9f484aU,
  0x3ddfe0223e83758dU, 0xbdc152d13e49cf49U, 0x3e5b494a3ea481a2U, 0xbeb353e93e8fa6f1U,
  0xbe56a95e3dd40f35U, 0xbeaf65b1bdc7efd0U, 0xbd3133f03e05f948U, 0x3d952d8d3e801798U,
  0xbe19ccefbe9a3faeU, 0x3d747991bb6641deU, 0x3e5eb2a2bdf46104U, 0x3dfbfbafbe9fb15aU,
  0x3e96924a3e1d1a2aU, 0xbdda81513e872ddfU, 0x3e2343343e8a664bU, 0x3de2aeb4be2a4806U,
  0x3e23816ebe92e2a5U, 0x3d5bdef0be328d2cU, 0x3debca7dbe1351e6U, 0xbd98fc673e88a271U,
  0xbd8c4030bd062f70U, 0xbe8031b1bdb1b8baU, 0xbded3690bd3477b6U, 0x3ddfcc53bd8e43f8U,
  0x3d5a6ee8bda9bf87U, 0x3de85a12bdbda2d1U, 0xbd4fff013d122a91U, 0xbdf2b996be410cc0U,
  0x3e45b29e3db7ec2cU, 0x3d0cf48bbe1e6cd7U, 0x3dbb09edbd902d90U, 0xbc41975c3e2ba18fU,
  0x3e1bcc613e84c6b9U, 0xbc8364a63d24aa89U, 0xbddfb6233cac3a61U, 0xbe2711c73e08656fU,
  0x3d53dfaabc8447e8U, 0xbdbcbd6fbcf09e83U, 0xbe14b2243e19c214U, 0xbb3381093da45811U,
  0xbd873d653e22f275U, 0xbe4e8eff3d54fe0dU, 0x3d231c36be19699aU, 0x3db63621beabd1ceU,
  0xbd7a349a3c92902cU, 0x3ea371f83ce1409bU, 0x3bf46c033e200e87U, 0xbe0bed13bd66fdadU,
  0x3b0c6470bcda0387U, 0x3da01d38be38a8feU, 0xbe116fb23cd6de7aU, 0x3e06d1f8bd1b2f78U,
  0x3cf19a823d105fb5U, 0xbe1bd4acbd887001U, 0x3bdc93713e2c3370U, 0xbdda7ba1be53348aU,
  0x3e18530dbd52d274U, 0xbdfedcbbbe965a53U, 0xbdda0451be002b51U, 0x3d9330c3bd8deb00U,
  0xbd4abf0ebd8d1108U, 0x3cb6426c3d4eed2cU, 0xbccc5e27bd6e3876U, 0x3da147fd3d3923e3U,
  0x3dfd5fdd3d7b40dbU, 0xbd56fb783de57bb1U, 0x3d15b0953d3a5285U, 0xbd448d1b3e324924U,
  0xbcda021a3cd87225U, 0xbd8adc9b3df9a5a8U, 0xbe05bc783d095856U, 0x3d4b15a7bcc9fb1aU,
  0xbe465ce5bdaf4288U, 0xbe543621bd9fa0e8U, 0xbb940330bbd8b28eU, 0x3d80e580bc93a24bU,
  0xbc7633f23e8ad884U, 0x3d8d96523c4ff4d9U, 0xbd1a84363e1124f0U, 0xbdb6c0b93e3838c4U,
  0xbd8f12b2bcacafdeU, 0x3e04897ebe2921b8U, 0xbdc310383c8b640aU, 0x3e4299c53d970a10U,
  0xbd4c2261be10c13dU, 0xbde86bbdbc579d42U, 0x3c39f239be15013aU, 0x3d946f02bd92146dU,
  0x3e2d5c14bddc359eU, 0xbebb2c4e3e1eeb29U, 0xbdb7f803bde0a7ecU, 0x3b569833bea91a4cU,
  0x3e7a9b703dfdd272U, 0xbde57b08bbdf930dU, 0x3e29a1b43dcb5c26U, 0xbe8de8b0bda848f4U,
  0x3d20bbe73e2202dfU, 0xbe58a94cbc720ad3U, 0xbe00c670be4fd49fU, 0x3d6177cfbe40ce9cU,
  0xbe9411123e177c2bU, 0xbc35c72dbeb5add8U, 0x3e89eb96bcc50c12U, 0xbdf0d2673d527719U,
  0x3e5b99203e0465e3U, 0xbe82928ebdb06fc9U, 0x3de2c373be2d6049U, 0xbdbb1c1dbd975a68U,
  0xbcc1ecf03e03567dU, 0x3da869b23d677c6fU, 0xbd09df7f3e0bcdb6U, 0x3df02d82bde36244U,
  0x3e101ac93e641ec1U, 0x3de9fc83bdaebfe6U, 0xbe30bd123e8069ebU, 0xbc3841a2bea30015U,
  0x3e1cc8983e131a74U, 0xbe3ec307bd3c8fc1U, 0x3e414d1cbce4168aU, 0x3c00579f3ddd2e7cU,
  0xbd8ac70bbd4eedcdU, 0x3d078de7be3ed920U, 0x3d2e767abd2d74faU, 0xbe131567bceaac78U,
  0x3da67535be7cf49eU, 0x3e0fbd12be2835e5U, 0x3d489a3c3d29584dU, 0x3def03cbbc0e220bU,
  0x3d66cb7b3e8add9eU, 0xbdd604bbbd14ddbaU, 0x3e1953133e6661b5U, 0xbd873270bd84b32cU,
  0xbdd4dfabbd8c9199U, 0xbcab0f593c093943U, 0xbdd9122f3d53e7daU, 0x3d43e156bdddaf96U,
  0xbce229e6bd84d076U, 0x3d6ae6093db68ca1U, 0xbdbcb3a33d039283U, 0x3d4559bfbe74b8dfU,
  0xbdbee4e73da7211bU, 0x3e107e5b3d92b075U, 0x3db053003e342e46U, 0xbd81ee933da65a7eU,
  0x3e1562a7be7a6888U, 0x3cdfb746be50dfc5U, 0xbe2a6891bc6bf676U, 0x3e40d5003dec9fc6U,
  0x3dc724803e160214U, 0x3d3916243e118a8cU, 0x3cd0a21c3cced52cU, 0xbe4a3a0f3e68f40dU,
  0x3dfb3f673da23262U, 0xbd369a66bd85cdb3U, 0xbc71d322bc96247dU, 0x3c9437813dab1649U,
  0x3ca5bf793ca00759U, 0xbdf8af54bb1d78a8U, 0x3d9ce61c3e150405U, 0xbc393f4e3d6ab61aU,
  0x3dbb4b3c3b1202c2U, 0x3d9a71e1be26bea6U, 0x3e315fb73e221a20U, 0xbd9b0992bdada009U,
  0xbd352706be53f343U, 0xbe1dba9e3d91bd91U, 0x3bd1133e3d842da2U, 0xbdc593dabd3ca2b0U,
  0xbdab21613e2b76fdU, 0xbdc9d445be0e6b2dU, 0xbd35e064be50211aU, 0x3d6461d5bcd2f0f9U,
  0xbde04042bd767ea0U, 0x3e191e8d3d933d09U, 0x3e9a394d3c962c4cU, 0xbd27dc5bbe04dff0U,
  0xbda543573d37f0dbU, 0x3e10585cbe1134dbU, 0x3e1e09bf3bba3ba2U, 0xbdc4d28d3c9b6e7cU,
  0x3de8a2aabdd3a201U, 0x3da741a2be09d23bU, 0xbe169b473d8f9c47U, 0xbd0444973c8b9fd4U,
  0x3e8309d6be3f4cadU, 0xbd6165953ddb97d1U, 0xbd04eb0dba867b02U, 0x3cba7452bd9a15faU,
  0x3e525b90bdfe8bd9U, 0x3d95dca33bdd78c6U, 0x3d35a1f5bd934d29U, 0xbc88c3bbbe3e9dd8U,
  0x3d843ae53db95b10U, 0xbd9e9adfbded5100U, 0x3e60b2393e2221b4U, 0xbd8e70d43d0eb718U,
  0xbe101db13e19fb61U, 0xbd9c02e2bdabcec1U, 0xbd3b5769bd86c04aU, 0x3cf920793e797a5bU,
  0x3d6d4299bdb8d154U, 0xbdcf0bd9be1340bfU, 0x3e73aa843d08d959U, 0xbe0a09813c2c644fU,
  0x3e84adf7be59029dU, 0xbb9518283d0faac4U, 0x3cc290e3bd9d4f1dU, 0x3cf5e76bbe1bc283U,
  0x3d503cd43d93ce29U, 0xbd96fe2cbc322cdeU, 0xbe872e353ddcd098U, 0x3d33f2ff3d9ff655U,
  0x3e13e3793e63a97eU, 0xbe158ed5bcf0cd6dU, 0x3def1d62bd9449fdU, 0x3db0bffb3c3e4b31U,
  0xbdaa7421bdf40a71U, 0x3cf86d72be4ee78cU, 0xbdcdefbcbc81e98cU, 0xbdbfe9c43c8e277fU,
  0xbd829aa23d960e3fU, 0x3d9d15f63e0a78a0U, 0x3b8379003e086450U, 0x3c7c501bbe5e6019U,
  0xbc3eb3833d6f5957U, 0x3d64fac53e2cbeceU, 0x3df5fc4d3e358d26U, 0xbd9724323e1c585eU,
  0x3d1ad610be05a79cU, 0x3d909e9ebd5e112aU, 0xbcd8a2de3b735ff2U, 0x3d66f65fbdac1fffU,
  0x3ca09ce03cf67a39U, 0xbe24addfbca97cbeU, 0x3d541c3bbe05bfc2U, 0x3e07f766bd8cf741U,
  0x3d852ceebc5a8084U, 0x3d1de587bdaa5ae3U, 0xbd8426453da99929U, 0x3d468ecc3ded7a95U,
  0x3de08fc6bdc3d623U, 0xbe36bd01be03f591U, 0xbabd0a9fbe941170U, 0x3d0d5cde3d8c902eU,
  0xbd507452bcbeb984U, 0x3d87b2b73e1a2a4dU, 0x3e0c91fbbe2db7d4U, 0xbe32981f3e941098U,
  0xbdcaa4093cf04e13U, 0xbd87da4ebcfeb5ebU, 0x3d8cb9b1bdb87561U, 0x3d4e17fcbe545f7cU,
  0x3b3f3b2bbdf38324U, 0xbe5dc807be16f937U, 0x3e578e343ddba2cbU, 0xbe1b97373d32b620U,
  0x3cf54ba23ceca95bU, 0xbe59c0eabe1480e5U, 0xbd37e948bebc9cc0U, 0x3dcb2a53bdf4f91cU,
  0x3de12820bd912193U, 0xbc745e70bd3007fbU, 0x3e14b035be07b705U, 0xbd917b963d34ae9bU,
  0x3d36e6403e847520U, 0xbe762ca6be0bbb12U, 0x3daa1558be0e8ca8U, 0xbe2237e1be27a6b2U,
  0x3e07e4df3e631126U, 0x3e1a84ff3da914f3U, 0x3e73d50cbd465b6eU, 0xbdd12053bcbca544U,
  0xbe11ae1b3d312625U, 0x3e23114ebe418dc7U, 0xbe3451643e220271U, 0x3de3ae89be6b758cU,
  0xbdda6b10bb98051cU, 0x3dea5a62bc917522U, 0xbd1d2f853c5c8a13U, 0xbd19486b3e209450U,
  0xbe5eaead3d2c2043U, 0x3d073cdf3d401170U, 0xbe2023ec3d31e7d2U, 0xbe8e4dbebe3634b2U,
  0x3d345387bd28e76cU, 0x3db9477b3da68d0bU, 0x3dccf3b23da08f45U, 0x3dfd09203d458b87U,
  0xbe2294863dd282b7U, 0xbdc58e83bd90f0b9U, 0xbc811107bd0d8392U, 0xbd8b1df83d41dffbU,
  0x3dca515cbde3ab79U, 0xbe2fa0303c197390U, 0x3d450904bdc73ef2U, 0xbbf78c33be7b4e5fU,
  0x3e30a1d03e9497c0U, 0xbe30bb0bbcb1bfdcU, 0x3c6a3a6bbd8b4aa0U, 0xbe01b24dbe1a5399U,
  0xbd74cc27bd9a74a1U, 0xbdafae693dbadab8U, 0x3e8b2d543c3edbfbU, 0x3e08df37bb47385cU,
  0xbd86da123d67d22fU, 0x3d86ec2bbd47cb67U, 0x3e2499d23d206ddbU, 0x3e24f5f9bbc1e477U,
  0x3de837bbbbbda213U, 0x3b8ba0b7bdb47f52U, 0x3e2380033e116686U, 0x3cabec55bce379cfU,
  0xbd981a52bc244266U, 0x3e3d44a33e08d6d1U, 0xbd08756fbd0471aaU, 0xbd1a366fbb859694U,
  0x3c1f524bbb9352a3U, 0x3e2060983e2218cdU, 0xbd83761abe108dceU, 0x3e2e90143bfabd81U,
  0xbd0b105abde50174U, 0xbe04f2bd3d387ec9U, 0x3c0d3e9b3dec4619U, 0xbd037f7c3d985fc9U,
  0xbdf075bcbd54c9d6U, 0xbe1439053d67ebadU, 0xbdf8c4f0bde4ad11U, 0xbd3589633d9ba5e6U,
  0xbb5bd905bc56eaf5U, 0x3bdd5a003e416cdfU, 0xbda4844f3e516d2bU, 0x3dfb082cbe677d84U,
  0xbd802c973dcd15b1U, 0xbe2cc2e23e1669eaU, 0xbd847d6f3e05ab44U, 0x3c7e122abe04a1f0U,
  0x3e1558953e31b496U, 0xbc6ca9dabd08072dU, 0x3d817e3fbd0c4b42U, 0xbcefcb9b3e213d4cU,
  0xbde5fcc43e88c24eU, 0xbe96d6f83bae17e2U, 0xbd86c24cbd5cb807U, 0x3cc2ae233d9a7eb1U,
  0xbd38e7f03d803828U, 0xbe074bcdbdc301d2U, 0x3e25307dbdc5fd20U, 0xbdcf5fab3cdf55a2U,
  0xbc8421c2bdb9efa9U, 0xbc952e3eba3a60f6U, 0x3e56675ebd484d0aU, 0xbdc9b99f3db691e6U,
  0x3e11bbbe3e265c5dU, 0xbd9ddfba3d2906b8U, 0x3dec8359be2ea117U, 0x3e0c86033d492a8dU,
  0x3e13fb7b3debf378U, 0x3e0e90d13d47203fU, 0x3d102ac33d86d5ceU, 0x3c4b90a1bd741cf4U,
  0x3e0c81e13e15efd7U, 0xbdfde72d3cfa25a2U, 0x3d89b257be901673U, 0x3e854ba8bdb0eb53U,
  0xbdc9ddaabe2aa5aeU, 0x3e1bb1863d2515b4U, 0x3d30549a3daf6d1bU, 0x3ccff8febd481436U,
  0xbdf3739cbe4facc6U, 0x3d3755c4be0e09c1U, 0x3bed45883e2d9abbU, 0xbd618977be42b07fU,
  0xbd3d643d3d769fffU, 0xbe9f588abca5c41bU, 0xbd6282f9be86625cU, 0xbe31eddfbe0e4151U,
  0xbd55c6673e2d2dceU, 0xbc2f3670bebe44acU, 0x3d522984be6b376aU, 0x3ea489693ddaed13U,
  0xbe48e1f8be22e69bU, 0xbd24ecd33cf40e21U, 0x3e14d1703e962363U, 0xbe333294bd9c78bbU,
  0x3e17b4ce3e141157U, 0xbd0ef6843cbdd81dU, 0xbe491de7be944ba6U, 0xbd6ca811be2c159fU,
  0x3dd241cc3e749b32U, 0x3dcda4e13b4ce37eU, 0xbe91594bbe38d179U, 0x3e6d51d1bdd37a54U,
  0xbe145e163e19fa60U, 0xbe0562483e3feeceU, 0xbd366b38be832489U, 0x3be250d8bde5df86U,
  0xbe5669f43e0d43f7U, 0xbd3ed004bd9572afU, 0x3dcad6df3e86bccbU, 0xbe03c75c3e243eccU,
  0x3ea34e1bbe32e629U, 0xbcb6ee8abea82510U, 0xbe9c475ebe5e158fU, 0x3e5cbccfbe1557fdU,
  0x3deed4d03e53edadU, 0xbe55b3a73d8c9a44U, 0x3da742473de6a888U, 0x3c164911bd2b52edU,
  0xbdcc807fbe1ec286U, 0xbd6ffc36bd9cecc3U, 0xbe3804173d9c0425U, 0xbe09804ebdf887faU,
  0xbe23f3b03e04c1feU, 0x3d82f9d23c94c358U, 0xbd1588fb3e00b25eU, 0xbd120d3e3c2cd677U,
  0x3e1c44733e5a9640U, 0xbe29bcf63dea06faU, 0x3dc8090b3d877f6aU, 0xbb2adb57bb35c02cU,
  0x3d296ecebcd0382aU, 0xbdf50d113e256ef5U, 0xbe1ea32e3d012cc3U, 0x3e0d495b3d6f499aU,
  0xbcb6135abda22636U, 0x3dc338bcbc673064U, 0xbd860caf3cfa2833U, 0x3d72be32bd9333beU,
  0x3da4a45fbd785cdaU, 0xbd220ab6bc192ce7U, 0xbbf17dd03e0faefaU, 0xbe2204a73ce867a3U,
  0x3d1331f9be848ce2U, 0xbdd51e7ebd9f0f18U, 0xbe6a18ac3da64717U, 0x3e2416f83e217188U,
  0x3dbb0e3bbe3bb126U, 0x3cbe3f95be0c3973U, 0x3ca5ee433e5a7f78U, 0xbb31fdacbd8eac55U,
  0x3d6808bbbe77c49bU, 0x3d7e75053923e6c3U, 0xbd9acf07bc65c9c4U, 0xbeb05ab83d123a37U,
  0x3e095fe1be24bfa3U, 0x3e2dff6ebc6a662cU, 0xbb9838743d5d6bb0U, 0x3e516fe3be0817f2U,
  0x3edcd5863da1c783U, 0xbdd58d343e412cbbU, 0x3c790f2a3e7ac10fU, 0xbe4693f03e8ea7bdU,
  0xbd4be12fbd988e9bU, 0xbe7eacf93e006c8cU, 0xbe1a7c59bd469568U, 0x3e338436bc620187U,
  0xbe065d94be385a10U, 0x3d2ef7b3bd434710U, 0xbdbb7a923e77587cU, 0x3dc0780fbe6fd6b3U,
  0x3e84c5be3e140d43U, 0xbe8404dd3e04c833U, 0x3e3851843ddcbe91U, 0xbe0a5188bd51ea72U,
  0x3d580e69be683297U, 0xbe357e30bd96dec2U, 0xbe8b5196bebd35d2U, 0x3f03152a3e4afe7eU,
  0x3dccf6abbe0c909bU, 0xbe0d4e46be7be705U, 0x3eb4ff0a3e9c9c82U, 0xbdc0ee73be68c269U,
  0x3e07f9d6be8227dcU, 0xbde43274be59f3d9U, 0xbe471438be3ea59dU, 0xbda8893cbdb3c725U,
  0x3e4e74c6bead5c01U, 0x3ed83857be8a68a3U, 0x3e580d353dc927f3U, 0xbdb970efbe8185aeU,
  0x3e26fba93eec66b5U, 0xbe213ace3e539371U, 0x3e8d2b6a3eb89f53U, 0xbe8dc2c43df983dbU,
  0xbe355cefbe3a1a0fU, 0xbea23fbd3d215a3aU, 0xbecf69ba3bc6231dU, 0x3e3723dd3e4882a8U,
  0xbe5f6d923b784154U, 0xbda4b52bbe5be5b3U, 0x3cd89a15bda176adU, 0x3c7db87dbee8cb69U,
  0x3eccebfd3ecbb473U, 0xbe18e6843e13a490U, 0x3d3b7fd13e9cfceeU, 0x3dc79ff03c97c173U,
  0x3ddcbbf2beb2de90U, 0x3dbfc26ebec07916U, 0xbe62f989be7ec0cbU, 0x3ec8ae313ec147a6U,
  0xbe192c1e3d1f6052U, 0x3cfeee1abc5a8943U, 0xbdd336d4bd92f893U, 0x3dba1d393dd7497fU,
  0x3e88cac13dc37a2fU, 0xbe89523a3d38a998U, 0xbe162d0e3cd9a364U, 0x3d02a155be949509U,
  0x3d1601ff3e7719d5U, 0xbdfb9922bbc7524fU, 0x3db44e2dbd9fc787U, 0xbd85b8893ea198f6U,
  0xbe3517f1bdeaa909U, 0x3b3bbf72be13eb9fU, 0xbe0d63f4be7bc321U, 0x3e08ae923d0f18f0U,
  0xbe14cac6bd990866U, 0xbe13905ebd7eaf34U, 0x3e9f49f5be29a128U, 0xbe1da0463bd07016U,
  0x3e0788e03e6eec17U, 0xbe0d253bbe18d796U, 0x3cb53ea6bea56ff2U, 0xbe87a8193dc7da06U,
  0x3d71613dbe3ca5baU, 0x3db509253db0d149U, 0x3d44827bbe3f8011U, 0x3da1d2d93d1762f9U,
  0x3d082960bd4db83aU, 0x3e5b713dbe41dcaaU, 0xbd9168c53e13b788U, 0xbc2373cb3dc47c6bU,
  0x3d05f0d2be66dd22U, 0xbd850bc0bd426170U, 0xbd0f4fd93e1e794eU, 0xbe1da6a93e3bd6c4U,
  0x3e7eef0cbe1e6af6U, 0xbd7de5053eb123e5U, 0x3d11ef79bd28e46cU, 0x3e245948bdb98edbU,
  0xbd991429bde97041U, 0xbda57d093cc1c5e5U, 0xbd89cdd0bde94886U, 0xbc53318cbd3ffcd4U,
  0xbc42a294bd8f2801U, 0xb94e4c62be1febd8U, 0xbd283a1a3cf63e36U, 0x3d07377cbdd7d944U,
  0xbd3e3170bdb5e223U, 0xbe1359af3d6fb151U, 0x3e51524abdb47149U, 0xbe27571a3db5ce11U,
  0xbd9f40bdbce27361U, 0xbcac98dfbdb9d615U, 0x3e9536f13e7feb3fU, 0x3d3c4a9cbe400d3dU,
  0x3d0cdafd3e17d108U, 0x3d5c4d0c3d225c57U, 0x3dd6a4fe3d2da903U, 0xbd22bf47bea1fe57U,
  0xbe45d9d5be0932afU, 0x3e35433cbdcf6e39U, 0x38df89bf3db480a0U, 0xbd2e14713e2c36f3U,
  0xbc13ab6dbda052deU, 0xbe58bcffbdd9399dU, 0xbddd23dcbe106f3aU, 0xbd230eb73e4cbcd4U,
  0x3e3f0106bd9b6cbdU, 0x3b4c0d283d294413U, 0xbde9a8be3b3a7946U, 0x3bd05ebebe3cdd0dU,
  0x3de994e5bdca8832U, 0x3dbd629dbda1702fU, 0xbd6dacb1bd8fdea2U, 0xbe1f76d0bc118a0eU,
  0xbd4321753ded7c7cU, 0x3d9834bebdd8c7b5U, 0xbd23c226bd5855ebU, 0x3c12221a3dba4670U,
  0xbd761ad13d1cdf05U, 0xbe215125be1be7ddU, 0xbb9687b0bcc3d5deU, 0x3d85efc63e79c62eU,
  0xbde4df9a3caf4e35U, 0x3d95e0373d83d237U, 0x3e6fa262be07989bU, 0x3d1e20debc6b4354U,
  0xbd6e71aebb661dc9U, 0x3b7526c43d377a83U, 0x3c73cce83d6ad9f9U, 0x3e0d1c1bbe74b216U,
  0x3d75dd053d9fa049U, 0x3dca22fcbdca804eU, 0x3dd468dc3dbc8d2fU, 0x3cc29f75be352a13U,
  0xbda2b6e5bd1276c4U, 0x3dd7c2b93d9b4e4aU, 0xbe9c06793c963c45U, 0xbde750bb3d18a574U,
  0xbcd52aaa3d798cf6U, 0x3bd50980bcc51c72U, 0xbd32b58e3d973f9aU, 0xbe1044c33d4cec6dU,
  0x3d96e36c3e25b9e9U, 0xbe6848a2bd20388dU, 0xbdbd3527bebb7dcbU, 0x3bfcbb7bbdaf98a1U,
  0x3dbe8efc3cf84418U, 0x3d78a5b9be723b95U, 0x3da9f58a3d958f8aU, 0x3b078f95be2e8312U,
  0x3d3934a8be1a0ee4U, 0xbe207dec3da40241U, 0x3e7360703e501fdcU, 0x3c82689fbd97debdU,
  0xbdba25223cd8fa7cU, 0x3e0c31a5bd8fba5eU, 0xbd1ba0ac3e080221U, 0x3d95099d3a8d5fc5U,
  0x3d440149bd12e266U, 0x3de256eebc6f39daU, 0x3d2cbd27bd283783U, 0xbd0c57f8be5beec0U,
  0xbd9b7d9ebe21d51aU, 0xbd1ed60d3d8f8b08U, 0x3d879d083ddedde0U, 0xbd1890a23e353286U,
  0xbdd3b8ed3db6f06cU, 0xbd896ebabe1b835dU, 0x3dcf6ed63b9d295aU, 0x3df472c6bdc45762U,
  0xbe2375d0be314046U, 0xbc30b539bea1c6d4U, 0x3e0cef9f3e0ff15eU, 0xbdfa7a9dbe5cdf29U,
  0xbd124c243e336d74U, 0x3e0ba31ebe317355U, 0xbd9056693d83324bU, 0x3d4f05163e264eb8U,
  0x3b89901fbcc05dbeU, 0x3e2dec5fbc8e137bU, 0xbdc849033d5420c9U, 0xbccd9c2a3e12e09eU,
  0x3e250f8bbcaa614aU, 0xbdec4a68be45bcaaU, 0x3d12ddbcbba64b30U, 0xbdf4a20d3db69b2cU,
  0x3ca7cf743d2baa56U, 0xbdd43b643c870c88U, 0xbd94060abd1f2294U, 0x3def3a7b3d83901fU,
  0x3cdde0e13d623571U, 0x3e04c336bd7b40e8U, 0x3d22e9243b3bf87eU, 0x3d01887b3e0a0d44U,
  0x3e391df53db853f0U, 0xbe1fd6f23daba9b9U, 0xbde44b9a3aef00ccU, 0x3d92d298bd119f2cU,
  0xbe77ecdfbca5855bU, 0xbcfc9f0fbd633e62U, 0xbe05a7543dab14f5U, 0xbd4ddd803e689dc6U,
  0x3df4dac7bd7d52b7U, 0xbd24a9d23cb7f5e5U, 0xbe404e24bbbf82beU, 0xbdc51ff6bdd6edc5U,
  0x3d5c60673e649953U, 0xbe2e023bba40148bU, 0xbc830bb5bdd24b2fU, 0xbb143f933e5cbb28U,
  0x3c8814ea3d5b584eU, 0xbe4043e0bd8be2a6U, 0x3d19e6133db50749U, 0x3ea126cebd401eeaU,
  0xbc25aa49bda6bcaaU, 0xbe3274713dcc65f1U, 0x3e23237d3e2c887aU, 0xbd8a1cd73d59d715U,
  0xbd8d41b43db0b7fcU, 0xbc893130bd187f14U, 0x3ca4a41bbe2e47f3U, 0xbcb151533e96dfd4U,
  0x3e412d9abd827d5cU, 0x3dd8370a3d3dac74U, 0x3cdf860b3cdbf8f9U, 0x3e018d81be70919fU,
  0xbdd8b1dabd3e3375U, 0x3d0dde75bdc65700U, 0x3d9a46b03df1e919U, 0x3d63a6db3d04aa52U,
  0x3d325473bcd897dbU, 0xbdc3a81f3d062817U, 0xbe2cf6ebbe094227U, 0x3d71d5db3ca66b39U,
  0x3db9a5703dccde3dU, 0x3c92b2a43dbfde80U, 0xbe24a73b3e3405c4U, 0x3cdb04fbbe1fcd87U,
  0x3db13f613d0526edU, 0xbde865fdbdaa30dfU, 0xbdce33c13d3b349bU, 0xbe9b010ebdd37971U,
  0xbe20fda9bc1f1f2aU, 0xbe1cda50be03e875U, 0xbcbc1879bcb118d0U, 0xbd83ce35be8d3186U,
  0xbe6ac3493e0066d0U, 0xbd8d233e3dbc4061U, 0xbd16f0163e0c08dcU, 0xbd2032613e82504dU,
  0xbd1f42313de3ce3fU, 0x3d758cc3be497787U, 0x3e06dfdcbd952ff0U, 0xbe37fecf3bf3a53cU,
  0xbcd3e63a3e40d5a1U, 0x3e2974083e276fd6U, 0xbc0cf21d3c4c36b4U, 0xbdc1f5cebe1c72cfU,
  0xbd0cd2933db2a4d4U, 0x3dbad99fbc17e780U, 0xbe322a38bc524fa5U, 0xbdc8251b3cc81d84U,
  0xbcba13483b8f0befU, 0xbe2235cdbe316856U, 0x3ddb8b7fbdf9b5f5U, 0xbe3b6df13ba10dcdU,
  0xbe3449dcbdeb50f1U, 0x3e1a66f53dff5664U, 0xbe05d037be4fae6cU, 0xbe63c792be60e831U,
  0x3dcafece3d46841fU, 0xbdcc182c3de26596U, 0x3e505b68bd53162fU, 0xbdf6b0893e00d72dU,
  0xbc9feb173e1a05feU, 0xbe3964f5bda294d8U, 0xbe73987c3da94183U, 0x3ddcd1c33da2dd1cU,
  0x3d6d40a53d25ff09U, 0xbcbc5ce8bd96a447U, 0x3dca1a0cbba5efb3U, 0x3e403c03bc058c04U,
